<PAD>	0
<UNK>	0
<BOS>	0
<EOS>	0
▁	-3.66411
을	-4.29466
가	-4.34323
도	-4.48869
요	-4.54989
이	-4.74333
는	-4.744
게	-4.80666
▁거예요	-4.83462
은	-4.86785
세요	-4.93012
고	-4.96052
지	-4.97044
를	-4.98674
▁수	-5.20891
의	-5.26004
▁너무	-5.30938
죠	-5.31172
보세요	-5.37024
▁거	-5.39364
▁좋아하는	-5.41934
▁더	-5.43208
▁사람	-5.48642
▁것	-5.48965
▁잘	-5.50143
▁안	-5.54774
서	-5.57931
▁나	-5.60728
한	-5.67193
에	-5.70054
면	-5.72866
▁사랑	-5.76113
네요	-5.76788
▁많이	-5.77528
▁좋은	-5.80364
히	-5.87714
▁그	-5.89009
▁좀	-5.92829
▁싶어	-5.93372
만	-5.93987
▁같아요	-5.95014
▁이별	-5.9941
랑	-5.99538
▁있어요	-6.00253
▁있을	-6.00316
▁사람이	-6.01538
으로	-6.04338
▁게	-6.0589
▁마음	-6.0616
로	-6.07463
네	-6.07502
▁때	-6.08468
▁썸	-6.09913
▁같아	-6.13222
▁내	-6.13935
▁생각	-6.18103
어	-6.20708
다	-6.21925
해보세요	-6.23359
▁다	-6.24597
나	-6.26329
하고	-6.2681
▁마세요	-6.27152
길	-6.27157
▁건	-6.28344
하세요	-6.29695
▁말	-6.32237
▁이제	-6.3246
▁오늘	-6.33393
할	-6.33504
나봐요	-6.34292
▁있	-6.36146
▁좋	-6.36541
▁마음이	-6.37805
▁내가	-6.38448
▁있는	-6.38954
▁왜	-6.41801
에서	-6.44035
야	-6.44823
▁해보세요	-6.45615
▁다른	-6.47919
▁어떻게	-6.4872
겠네요	-6.49024
겠어요	-6.50746
▁남자친구	-6.51508
▁뭐	-6.51624
▁가	-6.52227
니다	-6.52697
▁시간이	-6.53185
▁싶다	-6.53991
▁다시	-6.56724
▁여자친구	-6.59349
▁없어	-6.60011
▁일	-6.60242
일	-6.60969
▁정말	-6.61602
▁또	-6.6234
▁저	-6.62498
▁있어	-6.62505
▁연애	-6.62835
▁해	-6.63473
▁한	-6.6354
주세요	-6.6434
이에요	-6.64588
하는	-6.65975
▁좋을	-6.66789
▁연락	-6.66821
▁걸	-6.67178
▁수도	-6.67629
▁친구	-6.68657
▁못	-6.69814
▁하는	-6.69889
▁조금	-6.74345
▁같이	-6.74883
해	-6.75618
▁자신	-6.75644
는데	-6.75769
▁좋아	-6.75782
▁여자	-6.75838
▁될	-6.75888
▁지금	-6.76
▁하고	-6.76397
것도	-6.76589
▁사	-6.77304
▁혼자	-6.77713
습니다	-6.7841
▁할	-6.78604
으면	-6.79349
▁힘들	-6.79373
▁바	-6.81119
▁자꾸	-6.82277
겠죠	-6.83324
▁당신	-6.83458
▁시간	-6.84945
하지	-6.85797
인데	-6.86843
기	-6.86853
년	-6.89248
▁없어요	-6.89531
▁드	-6.89961
든	-6.90848
▁이	-6.91332
거	-6.91875
▁바랄게요	-6.92583
▁진짜	-6.92625
▁그런	-6.92874
▁일이	-6.93423
▁살	-6.93691
▁먼저	-6.93885
▁돼요	-6.95606
▁될까	-6.96004
▁제가	-6.96195
과	-6.96699
▁헤어진지	-6.96999
합니다	-6.9828
▁만나	-6.98456
▁저도	-6.9848
하게	-7.00897
▁아무	-7.00954
▁있을까	-7.00962
▁없는	-7.01135
▁하나	-7.01701
한테	-7.02044
▁선물	-7.02351
는게	-7.02764
▁계속	-7.03969
▁남자	-7.0413
▁좋겠어	-7.04477
거예요	-7.05297
라	-7.05363
▁힘든	-7.05543
▁좋아요	-7.05629
▁그럴	-7.06087
인	-7.08921
까	-7.09113
봅니다	-7.09495
▁하	-7.09812
어요	-7.09852
랍	-7.10021
▁먹고	-7.10109
▁짝녀	-7.11114
▁않	-7.11762
▁서로	-7.11827
데	-7.12902
▁전	-7.12947
▁않아요	-7.13706
▁방법	-7.14304
▁사랑이	-7.14413
보다	-7.14723
▁술	-7.15448
가봐요	-7.16077
라고	-7.16609
▁참	-7.16721
하면	-7.17414
운	-7.17586
▁없	-7.19294
▁날	-7.19582
▁중	-7.19722
입니다	-7.1973
▁짝사랑	-7.19929
▁아직	-7.19952
던	-7.20009
봐요	-7.20113
▁이야기	-7.20238
씩	-7.20711
▁눈	-7.23021
상	-7.23045
▁결혼	-7.24741
▁준비	-7.24891
다고	-7.25329
▁애	-7.25556
니까요	-7.26984
니	-7.27329
▁많은	-7.27335
▁하지	-7.28395
▁말해보세요	-7.29109
▁생각해요	-7.29249
▁데이트	-7.30443
▁보고	-7.30928
▁충분	-7.31732
▁고민	-7.32267
해도	-7.3235
▁무슨	-7.33012
▁줄	-7.34435
▁해요	-7.34482
▁그냥	-7.35232
▁짝남이	-7.35856
▁이렇게	-7.36813
▁돈	-7.36973
▁어떤	-7.37022
까지	-7.37102
했어	-7.3877
▁그렇	-7.3903
▁할까	-7.39355
에게	-7.39721
지만	-7.40109
지도	-7.40131
▁몰라요	-7.40259
▁나만	-7.40377
▁친구가	-7.40449
▁대화	-7.40534
▁안돼	-7.40733
예요	-7.40794
▁사람은	-7.41367
▁힘드네	-7.41479
래	-7.42162
▁들어	-7.42249
▁1	-7.4272
▁싫어	-7.43013
▁2	-7.4328
해요	-7.43368
대로	-7.43495
▁함께	-7.43693
▁아	-7.43769
▁머리	-7.43976
▁하루	-7.44106
▁오래	-7.4457
할까	-7.44601
▁내일	-7.45213
▁공부	-7.45302
▁짝남	-7.45722
▁관심	-7.45874
나를	-7.46456
▁너	-7.46463
▁새로운	-7.46517
려	-7.46764
▁카톡	-7.47023
▁바라	-7.47344
▁남	-7.47721
▁보세요	-7.47811
▁힘들어	-7.47914
▁어떨까요	-7.47966
▁되	-7.48242
와	-7.48636
▁알	-7.48637
▁헤어진	-7.49907
▁있는데	-7.50086
▁같	-7.50116
▁사랑하는	-7.50273
▁생각해보세요	-7.50378
▁여행	-7.50811
▁후	-7.50921
▁해야	-7.51006
▁듯	-7.51478
▁그래	-7.51526
▁감정	-7.51662
▁하면	-7.5211
▁3	-7.52251
대	-7.52637
군	-7.52851
게요	-7.53294
▁연락이	-7.53926
▁타는	-7.54065
▁누구	-7.5519
▁보	-7.55733
▁돼	-7.56182
▁아니에요	-7.56292
이네요	-7.57162
▁말고	-7.57969
▁이유	-7.58124
▁생각이	-7.58524
른	-7.58614
심	-7.58657
항	-7.58975
▁않아	-7.59176
▁고백	-7.61208
▁싶은	-7.61429
▁열	-7.61563
진	-7.61727
▁이젠	-7.62224
▁많아	-7.62392
▁해도	-7.62731
▁마음에	-7.63146
하죠	-7.63251
▁끝	-7.63411
▁올	-7.63424
▁따라	-7.6351
▁스트레스	-7.63826
겠지	-7.63926
▁않는	-7.64078
▁나한테	-7.64157
▁같은데	-7.64167
▁도움	-7.64195
부터	-7.64339
▁운동	-7.64351
▁만큼	-7.64369
▁만날	-7.64511
볼까	-7.64537
▁가고	-7.6459
▁기억	-7.64736
▁우리	-7.64998
▁쉽지	-7.65039
▁곳	-7.65284
자	-7.65377
▁후회	-7.65424
이야	-7.65924
▁좋겠다	-7.65952
▁쉬	-7.66253
해주세요	-7.66461
▁그녀	-7.66702
해서	-7.66725
▁정리	-7.66923
▁맘	-7.67077
▁제	-7.67248
▁모르겠어	-7.67793
▁오	-7.67802
해볼까	-7.6816
수	-7.68794
▁기분	-7.69039
▁꿈	-7.69778
자고	-7.70119
▁어때	-7.70316
인지	-7.70444
질	-7.7089
시	-7.7174
애	-7.71765
▁이별을	-7.71825
▁않을	-7.72401
건	-7.72572
▁같은	-7.73193
거라	-7.73205
▁집	-7.74233
▁직접	-7.7463
▁시작	-7.74824
▁얼	-7.74908
▁언제	-7.75036
▁좋을까	-7.75237
▁꼭	-7.75498
리	-7.75668
▁전화	-7.77343
▁문제	-7.77462
▁자	-7.77629
▁아니	-7.77937
▁생각해	-7.78109
▁있나	-7.78412
▁걱정	-7.78434
▁볼	-7.78461
면서	-7.79136
▁괜찮아요	-7.79532
거나	-7.79625
아	-7.79926
▁어디	-7.80843
▁요즘	-7.80912
▁변화	-7.80975
▁반	-7.81149
니까	-7.81164
▁점	-7.81569
▁결국	-7.82008
구	-7.83306
▁기대	-7.84337
▁찾아	-7.84921
▁되는	-7.8499
▁비	-7.85008
걸	-7.85044
점	-7.85164
▁피	-7.8517
▁알아	-7.86205
▁나는	-7.86262
긴	-7.86412
▁않은	-7.86414
▁맛있	-7.87229
▁와	-7.87262
▁있죠	-7.87334
함	-7.87416
다면	-7.87653
▁아니라	-7.87685
▁가는	-7.88644
만큼	-7.88717
▁아직도	-7.88755
▁말아요	-7.88874
▁집에	-7.88897
▁한달	-7.89092
▁중요한	-7.89143
▁싶은데	-7.89292
▁마음의	-7.89701
▁늦	-7.90039
려고	-7.90083
간	-7.90418
▁물어보	-7.9043
기도	-7.9078
적인	-7.90782
▁어제	-7.90861
▁연락을	-7.90936
▁노래	-7.90994
▁때문에	-7.91139
야지	-7.91738
▁연락해보세요	-7.91822
▁인생	-7.91856
인가봐요	-7.92062
▁모르는	-7.9212
대한	-7.9215
▁갑	-7.92353
▁회사	-7.92733
▁필요해	-7.9284
▁필요	-7.92971
수록	-7.93075
▁아파	-7.93227
▁매일	-7.93638
처럼	-7.93813
▁상처	-7.94062
▁시간을	-7.94438
▁거라	-7.94453
▁큰	-7.94892
▁완전	-7.94926
▁가장	-7.9516
▁싶	-7.95333
자기	-7.9541
▁오늘도	-7.95474
▁마지막	-7.95662
이라	-7.96093
▁있나봐요	-7.96178
여	-7.96201
들	-7.96468
▁맞는	-7.96485
장	-7.96716
오세요	-7.96829
임	-7.97113
▁잠	-7.97822
▁관계	-7.97957
▁현실	-7.98013
주	-7.98186
제일	-7.98436
▁보내	-7.98969
▁남자애	-7.9923
▁나쁜	-7.99381
▁여친	-7.9949
▁딱	-7.99513
▁타	-8.00029
▁헤어짐	-8.00149
천	-8.00321
이죠	-8.0056
▁이런	-8.00915
에요	-8.01416
걸까	-8.01446
▁살고	-8.01573
▁핸드폰	-8.0162
▁용기	-8.02035
▁모든	-8.02041
▁고민이	-8.02135
▁가지	-8.02189
▁헤어지고	-8.02567
개월	-8.0264
▁몸	-8.02669
▁얼마	-8.02717
▁잘할	-8.02932
▁미련	-8.0297
▁남자가	-8.03053
돼	-8.03756
▁밥	-8.03837
▁어느	-8.03913
▁뭘	-8.03952
▁나이	-8.03997
▁중요해요	-8.04078
▁만들어	-8.04125
하네	-8.04351
때	-8.04453
음	-8.05106
▁난	-8.05707
하는데	-8.06088
▁입	-8.06343
▁기	-8.0639
▁정	-8.06402
▁차	-8.06405
러	-8.06501
▁알았는데	-8.06515
▁뭘까	-8.06533
▁확신	-8.06676
▁사진	-8.06891
▁마	-8.06973
▁천	-8.0759
▁없다	-8.07964
에는	-8.08065
▁덜	-8.08086
▁잘하는	-8.08157
▁사람들이	-8.08277
이랑	-8.08566
▁기다려	-8.08645
▁아침	-8.08727
▁가끔	-8.08744
▁스스로	-8.08761
방	-8.08867
▁예의	-8.08902
▁왔어	-8.09186
▁썸남	-8.09333
▁상대방	-8.0934
▁자기	-8.0969
차	-8.09697
▁했는데	-8.09743
▁없네	-8.09745
▁번	-8.10025
▁사랑에	-8.10359
▁재회	-8.10463
▁남친	-8.10609
▁엄청	-8.10946
▁되나	-8.11043
▁물	-8.11205
▁아닌	-8.11263
▁자주	-8.11312
▁커피	-8.11376
▁날씨	-8.11386
▁모두	-8.11532
▁많았	-8.11532
▁어떡해	-8.11573
▁짝남한테	-8.1159
▁인연이	-8.11932
▁놀	-8.12045
▁조심하	-8.12284
▁보는	-8.12304
▁들	-8.12551
▁길	-8.12559
▁선택	-8.12766
일까	-8.12837
▁만나는	-8.12848
▁정리가	-8.12942
▁기분이	-8.13198
▁당신이	-8.13365
▁엄마	-8.13794
▁5	-8.14354
▁그만	-8.14461
▁새	-8.14635
▁한번	-8.14703
▁소개팅	-8.15106
▁된	-8.15127
하	-8.15192
▁쉬운	-8.15199
▁사람한테	-8.15202
▁받아	-8.15216
▁처음	-8.15259
▁없을	-8.1531
▁결정	-8.15406
▁화	-8.15597
▁대	-8.15623
▁갈	-8.15984
하기	-8.16158
▁필요한	-8.16278
▁진심	-8.16409
▁의미	-8.16454
했던	-8.16466
▁기다리	-8.16685
하면서	-8.16812
▁있다면	-8.1683
인가	-8.16996
▁사는	-8.17156
정	-8.17267
▁추천	-8.17537
된	-8.17605
져	-8.17961
▁좋아할	-8.18085
▁모르겠어요	-8.18284
마다	-8.18709
▁연습	-8.1894
▁영화	-8.19031
이나	-8.19336
적	-8.19413
▁후폭풍	-8.19657
▁상대	-8.19824
▁느낌	-8.20008
마세요	-8.20178
▁손	-8.20349
▁몇	-8.20458
▁앞에	-8.21115
더니	-8.21119
▁정도	-8.21223
▁행복	-8.21583
▁나와	-8.21789
▁좋아하	-8.21792
▁신경	-8.21946
▁빨리	-8.22067
▁부	-8.22111
▁날이	-8.22149
▁좋아해	-8.22369
▁잔	-8.22514
줄	-8.22573
▁모습	-8.22725
▁추억	-8.2348
냐	-8.23499
▁만나고	-8.24121
치	-8.24188
▁벌써	-8.24758
▁잘하고	-8.24815
금	-8.24877
▁꽃	-8.24907
▁귀	-8.25022
▁6	-8.25023
▁무	-8.25119
▁만들	-8.25286
▁않았	-8.25459
▁아픈	-8.25555
▁두	-8.25568
▁부모님	-8.25664
▁4	-8.25908
▁언젠	-8.26009
▁얼굴	-8.26336
▁주	-8.26397
▁먹어야	-8.26494
▁사이	-8.27578
▁이별이	-8.27597
▁넘	-8.27785
날	-8.27989
었어	-8.28103
▁감기	-8.28193
찍	-8.28445
▁괜찮은	-8.28484
▁사람들	-8.28595
▁끝나	-8.28713
제	-8.28717
▁걸까	-8.28827
▁이상	-8.29237
▁갖	-8.29367
달	-8.29519
해봐요	-8.29533
▁생각나	-8.29562
▁만난	-8.29752
▁가져	-8.30069
▁자신이	-8.30199
▁말이	-8.30477
듯	-8.30606
▁먹	-8.30654
▁잠시	-8.30791
▁바람	-8.31026
▁가능	-8.31108
▁만남	-8.31161
▁힘내세요	-8.31165
▁맞	-8.31199
▁신경쓰지	-8.31304
드릴	-8.31329
달라고	-8.31457
▁약	-8.31732
▁많	-8.31919
▁예쁘	-8.31938
▁예뻐	-8.32931
▁아픔	-8.33609
▁줘	-8.33654
▁아닌데	-8.33987
나요	-8.34167
▁것이	-8.34171
▁믿어요	-8.34392
▁적	-8.34715
▁소리	-8.34812
▁뿐이에요	-8.34852
▁되길	-8.35101
▁사귀고	-8.35374
▁하는데	-8.35423
▁되지	-8.35494
실	-8.35606
만에	-8.35813
봐	-8.35858
릴	-8.35929
거야	-8.35994
▁금	-8.36039
▁힘들다	-8.36071
트	-8.36126
▁습관	-8.36152
▁티	-8.36491
▁재미	-8.36512
▁바쁘	-8.36648
▁안해	-8.36668
▁슬픈	-8.37075
▁직장	-8.3711
▁어려워	-8.37115
일째	-8.37455
▁여친이	-8.37569
▁힘이	-8.37974
▁궁금해	-8.38268
▁남편이	-8.38313
▁좋겠	-8.38626
신	-8.38677
▁되었	-8.3915
▁잘못	-8.39782
▁다가가	-8.40246
▁주무	-8.40415
▁지	-8.40542
▁있었나봐요	-8.40708
▁알바	-8.40909
▁원하는	-8.40921
▁받고	-8.41013
▁나서	-8.41094
▁찾아보	-8.41422
▁전에	-8.41459
졌어	-8.41724
▁학교	-8.42291
▁호감	-8.428
▁여자애	-8.43029
것	-8.43295
없이	-8.43301
▁동	-8.43426
▁게임	-8.43458
▁연락하고	-8.43462
번	-8.43481
▁아는	-8.4376
▁보면	-8.43788
▁삶	-8.43794
▁위해	-8.4382
▁화장	-8.43939
▁곧	-8.43985
▁자체	-8.44034
▁힘들게	-8.44042
▁필요하	-8.44138
▁건강	-8.44208
▁최고	-8.44224
드려	-8.44294
▁못하겠어	-8.44306
▁일어나	-8.44482
▁막	-8.44538
발	-8.44796
▁뭐야	-8.44829
▁썸남이	-8.45292
통	-8.4534
▁여유	-8.45475
▁사귀는	-8.45526
해야	-8.45814
▁긴	-8.46071
▁쉽	-8.46507
▁만	-8.46679
▁가슴	-8.46711
지는	-8.4679
▁이해	-8.46859
해야지	-8.46917
▁법	-8.46971
겠지만	-8.47138
▁옷	-8.47244
보	-8.4745
▁나중에	-8.47487
▁즐거	-8.47532
▁귀찮아	-8.47538
▁헤어지	-8.47602
▁괜찮을까	-8.47619
야겠다	-8.47806
▁꿈에	-8.48049
▁감	-8.48197
▁사랑했던	-8.48433
▁연락해	-8.48447
▁확인해	-8.48455
▁당	-8.48651
▁선	-8.48653
▁따뜻	-8.48784
▁못해	-8.48834
▁먹으면	-8.49034
▁다음에	-8.49208
▁싫다	-8.49402
▁생각할	-8.49639
▁그분	-8.50055
▁축하	-8.50164
▁별로	-8.50279
▁해주세요	-8.50401
▁되어	-8.50547
▁챙겨	-8.5062
▁좋아하면	-8.51047
▁생겼	-8.51146
▁보통	-8.5119
▁자신감	-8.51312
▁만났어	-8.51324
▁확실한	-8.51392
▁물어	-8.51715
▁소중	-8.51856
용	-8.51908
▁힘들지	-8.51973
▁코	-8.52185
▁설레	-8.52259
▁차이	-8.52367
▁행복해	-8.52475
▁그녀를	-8.52586
▁가기	-8.52598
▁물어보는	-8.52835
▁세상	-8.53065
▁말씀	-8.53202
▁위로	-8.53222
▁좋아하게	-8.53297
답	-8.53357
▁중에	-8.53398
▁많아요	-8.53626
했습니다	-8.5377
디	-8.54388
▁비싸	-8.5467
▁맛	-8.5481
▁우산	-8.54967
▁작은	-8.55167
▁짝녀한테	-8.55338
▁맨날	-8.55413
▁중요하지	-8.55416
▁미리	-8.55432
▁답	-8.5547
▁못하는	-8.55472
중	-8.55761
내	-8.55851
▁목	-8.55878
▁친구한테	-8.55956
▁괜찮	-8.56254
▁말해	-8.56318
▁잠이	-8.56375
▁연인	-8.56524
▁맛있는	-8.56837
▁첫사랑	-8.56854
▁끝이	-8.56874
▁봐	-8.56928
▁힘들겠지	-8.57278
▁받을	-8.57337
있는	-8.57374
▁했어	-8.57497
▁표현	-8.57585
▁안녕	-8.57805
▁없이	-8.57811
▁배	-8.57839
▁먹어	-8.5788
▁다를	-8.58024
▁간다	-8.58222
▁없네요	-8.58239
▁곳이	-8.58329
▁이별후	-8.58365
▁힘	-8.58376
▁차단	-8.58527
며	-8.5874
▁고생	-8.58778
ᅲᅲ	-8.58852
▁종교	-8.5896
▁아프	-8.58985
▁기회	-8.59104
▁생길	-8.59115
▁시험	-8.59188
▁잠깐	-8.59188
▁주는	-8.59194
▁헤어졌습니다	-8.59299
▁위	-8.59341
▁카페	-8.59379
▁책	-8.59483
▁바쁜	-8.59563
▁편이	-8.59784
사	-8.59837
▁하늘	-8.59944
▁밤	-8.59977
▁놀아	-8.60079
▁대해	-8.60217
▁떠나	-8.60435
▁연락해도	-8.60729
을까	-8.60762
▁실수	-8.60819
▁이별의	-8.61042
▁정신	-8.61113
▁알게	-8.61206
다가	-8.61215
▁진정	-8.61255
건가	-8.61333
▁글	-8.61343
▁순간	-8.61741
▁약속	-8.6189
▁가야	-8.62217
▁보여	-8.62245
보면	-8.62411
줘	-8.62558
▁좋아하는데	-8.62558
▁전여친	-8.62603
▁쓰	-8.62668
림	-8.62953
란	-8.63017
▁멋진	-8.63139
▁분위기	-8.63151
▁알려줘	-8.63157
들이	-8.63205
▁싶네	-8.63383
했는데	-8.63385
▁만나지	-8.63441
▁같습니다	-8.63575
▁별	-8.63586
▁절대	-8.63634
▁알고	-8.63701
▁편하	-8.63749
▁건지	-8.63789
갈	-8.63916
▁받는	-8.64085
▁돈이	-8.64237
▁아닌지	-8.64265
사람을	-8.64281
줄까	-8.64335
▁모르	-8.64511
▁사랑할	-8.64515
▁타고	-8.6468
▁거짓말	-8.64705
▁사랑해	-8.64767
▁되네	-8.65109
▁상관	-8.6521
▁모	-8.65297
▁일을	-8.65399
이라면	-8.65422
▁안되는	-8.65557
울	-8.65703
집	-8.65736
▁즐기	-8.66049
▁느낌이	-8.6632
▁복	-8.66411
▁그래요	-8.66418
소	-8.66501
▁않고	-8.66556
린	-8.66743
▁봐요	-8.66833
덧	-8.66965
▁보지	-8.67013
▁봄	-8.67043
▁힘들어요	-8.67168
▁괜	-8.67417
▁자존감	-8.67493
▁드디어	-8.67494
▁헷갈리	-8.6754
▁뭔지	-8.67711
▁둘	-8.67783
▁파	-8.67794
▁노력하	-8.67874
겠어	-8.67997
텐데	-8.68002
▁받아들이는	-8.68188
▁사귀	-8.68346
▁죽을	-8.68372
가요	-8.68469
▁환승	-8.68528
▁드는	-8.6855
▁안되	-8.68592
▁편	-8.68643
▁남친이	-8.6892
▁여자애가	-8.69132
▁좋은데	-8.6916
▁살아	-8.69282
▁서로에	-8.69345
▁첫	-8.69361
▁됐어	-8.69558
▁좋겠죠	-8.69676
▁탈	-8.69716
▁먹을	-8.7019
▁폰	-8.70226
왔어	-8.70235
▁관리	-8.70859
▁미련이	-8.71212
▁데	-8.71235
▁남자들	-8.71597
가서	-8.71687
▁월급	-8.71855
엔	-8.71882
▁지켜	-8.71976
▁자책하지	-8.72064
▁매	-8.72104
▁떨려	-8.72111
▁않는다면	-8.72201
▁장	-8.72231
▁인기	-8.72318
▁뭔가	-8.72322
▁아닐까요	-8.72385
▁나가	-8.7241
▁방법이	-8.72561
▁문자	-8.72616
▁시기	-8.72704
▁그러면	-8.72852
▁분	-8.7294
▁뭐라고	-8.73308
▁개	-8.73334
▁세	-8.73653
겠다	-8.73663
▁있지	-8.73672
▁사랑하고	-8.74246
▁구	-8.74507
▁주변	-8.74761
선	-8.7512
▁친구들이	-8.75152
▁사랑하면	-8.75157
했어요	-8.7538
▁능력이	-8.75468
▁자연스러	-8.75709
▁하기	-8.75873
▁이제는	-8.75892
▁벌	-8.75918
▁잊혀지	-8.75919
▁행동	-8.76009
더라	-8.76485
▁눈물	-8.76514
▁비밀	-8.76758
▁기다릴	-8.76803
▁무서워	-8.76808
었나봐요	-8.76824
▁내려	-8.7683
▁물어봐	-8.77118
▁축하해요	-8.7715
▁재밌	-8.77262
▁괜찮아	-8.77452
▁두려워	-8.77493
▁좋다	-8.7755
▁도전	-8.77578
▁받	-8.77603
▁잊는	-8.77802
▁그리고	-8.77984
▁좋지	-8.78227
되	-8.78253
▁오는	-8.78467
▁믿	-8.78527
▁깨	-8.7886
▁사람에	-8.7896
▁이상형	-8.79181
리는	-8.79274
▁인정	-8.79372
▁괜찮을	-8.79372
▁신경쓰	-8.79443
▁세상에	-8.79454
▁척	-8.79539
▁편지	-8.79571
▁기다리는	-8.79665
▁욕	-8.79736
럽	-8.80018
▁네	-8.80111
▁써	-8.80236
▁두달	-8.80418
▁인	-8.80482
▁성격이	-8.8066
▁프사	-8.80741
단	-8.8094
▁꾸준	-8.81091
▁발	-8.81307
했으면	-8.81389
▁잊지	-8.81396
▁보러	-8.81428
▁말하는	-8.81608
▁적당히	-8.81808
▁어려운	-8.81811
▁화장실	-8.81823
▁있잖아	-8.81856
▁헤어졌어	-8.81915
▁짜증나	-8.81949
▁최선	-8.81953
▁경우	-8.81965
▁않았으면	-8.82012
▁쇼핑	-8.8234
▁나랑	-8.82371
▁이상한	-8.82432
▁후회하지	-8.8255
▁로맨틱	-8.82567
▁싸	-8.82643
▁상담	-8.8269
▁전남친	-8.82743
▁생기	-8.8275
▁조언	-8.82773
비	-8.82905
▁시켜	-8.83083
▁잊을	-8.8314
감	-8.83183
▁되고	-8.8324
▁앞	-8.83274
▁정리하는	-8.83422
▁잊고	-8.8346
▁조	-8.83528
▁성공	-8.83611
▁것보다	-8.83696
▁썸녀	-8.83918
했	-8.84184
▁인연	-8.84353
난	-8.84466
▁같네요	-8.84564
지요	-8.84634
살	-8.84773
두	-8.84793
▁먹는	-8.85521
▁어떡하	-8.856
까봐	-8.86354
▁지났네	-8.86364
▁친구들	-8.86515
▁해보는	-8.86559
▁주면	-8.86683
가슴이	-8.86721
땐	-8.86907
▁예쁜	-8.86916
▁샀	-8.86972
▁병원	-8.87023
▁오빠	-8.87024
▁원래	-8.87074
애가	-8.87201
▁사랑한	-8.87243
▁제대로	-8.8725
▁이번	-8.87259
▁생각하	-8.87265
▁생각만	-8.87319
증	-8.87341
동안	-8.87357
▁상황이	-8.8748
▁여러	-8.87518
같은	-8.87522
셔	-8.87569
▁않을까요	-8.87624
▁누가	-8.87631
▁저에게	-8.8768
▁그대로	-8.87782
드	-8.87784
▁뭐라	-8.87915
▁행복한	-8.87998
▁자신에게	-8.88035
▁단	-8.88053
▁만나자	-8.88056
▁웃	-8.88316
라면	-8.88632
▁받았어	-8.88802
▁사람이네요	-8.88804
▁감정이	-8.8909
▁상황	-8.89167
▁살펴보	-8.89363
▁이야기해	-8.8945
▁부담	-8.89858
짝	-8.89939
▁군대	-8.89957
▁사람과	-8.90131
▁안나	-8.90267
다니	-8.90327
▁옆에	-8.9043
째	-8.90501
▁속이	-8.90748
론	-8.90759
▁종	-8.90769
▁온	-8.90932
▁사람에게	-8.90988
▁있으	-8.91017
후	-8.91091
▁마시	-8.91147
▁아이	-8.9122
▁어	-8.91447
▁후회할	-8.91496
▁낫	-8.91564
▁숨	-8.91667
▁다르	-8.9179
▁확실	-8.91895
나봐	-8.91914
▁끝을	-8.9196
▁보고싶어	-8.92219
▁다행	-8.92416
▁간	-8.92423
▁속	-8.92426
▁있네요	-8.925
▁눈에	-8.92536
▁버텨	-8.92571
▁발표	-8.92574
▁담배	-8.92575
▁어플	-8.92593
▁연예인	-8.92597
가면	-8.9263
고생	-8.92657
▁강	-8.92819
▁노력	-8.92827
▁눈치	-8.9283
▁용기내	-8.92862
▁주말	-8.92915
▁10	-8.92979
▁싶지	-8.9298
년째	-8.93147
▁유	-8.9315
▁짧	-8.93172
▁그런가봐요	-8.93174
▁얘기	-8.93176
▁있으니까	-8.93665
▁힘내	-8.93709
▁질투	-8.93712
▁알아보	-8.93782
▁스킨십	-8.93938
▁상황을	-8.94009
스	-8.94018
▁하셨	-8.94053
▁나오	-8.94212
▁건가	-8.94285
▁해서	-8.94398
▁식	-8.9445
보고	-8.94516
▁좋아할까	-8.9454
▁이사	-8.94798
▁여	-8.94805
▁신	-8.94942
▁그녀가	-8.94952
▁받지	-8.95145
▁가족	-8.95168
▁나을	-8.95326
다는	-8.95599
▁봅니다	-8.95909
아요	-8.96026
▁쉬어	-8.9608
▁놓아주	-8.96178
▁시	-8.9618
하다	-8.96385
▁달라지는	-8.96507
는건	-8.96784
전	-8.97068
▁행복하	-8.97104
▁스타일	-8.97133
▁그러	-8.97449
같아	-8.97504
버리세요	-8.97508
▁시작이	-8.97602
▁고	-8.97767
▁짝사랑하는	-8.97971
칠	-8.98021
크	-8.98115
▁지내	-8.98117
▁안들어	-8.98264
▁연락하는	-8.98285
▁아닐	-8.98333
됨	-8.98345
▁그렇지	-8.98445
▁새벽	-8.98452
▁바빠	-8.98458
▁졸	-8.98522
▁부담스럽	-8.98581
▁끝내	-8.98631
▁안하고	-8.98636
▁한동안	-8.98648
▁영	-8.98701
▁의사	-8.98703
▁등	-8.9875
▁커플	-8.98988
▁감사	-8.99005
▁무엇이	-8.9901
▁헤아리	-8.99028
▁따	-8.99053
▁극복	-8.99104
시다	-8.99165
▁상	-8.99171
▁하다보	-8.99257
▁없나	-8.99343
낼	-8.99397
▁눈물이	-8.99528
▁답장	-8.99568
▁시작해보세요	-8.99642
▁달	-8.99701
▁같네	-8.99838
▁호감이	-9.00319
▁생일	-9.00504
▁혼자만	-9.00686
▁힘들었	-9.01196
보는	-9.01236
▁못하고	-9.01336
▁톡	-9.01468
▁청소	-9.01588
▁소	-9.0165
▁다녀	-9.01758
▁언젠가	-9.01987
어도	-9.02121
▁심해	-9.02142
▁했	-9.0223
우	-9.0228
겠습니다	-9.02409
▁연락하면	-9.02577
▁우울	-9.02783
ᅮ	-9.02813
▁주고	-9.02837
▁생겼어	-9.02965
이별한	-9.03003
▁보이	-9.03326
▁조심	-9.03415
마	-9.03429
▁적극적	-9.03485
▁상처받	-9.03533
▁원	-9.03709
▁준비하	-9.03835
식	-9.0414
놓고	-9.04236
▁장난	-9.04303
▁발전	-9.04357
시길	-9.04414
▁본인	-9.04473
할텐데	-9.04491
▁생각하는	-9.04572
▁어쩔	-9.0461
▁7	-9.04647
▁저녁	-9.04693
▁괴롭	-9.04693
▁면접	-9.04694
▁버스	-9.047
▁SNS	-9.04718
▁목소리	-9.04722
▁안경	-9.04727
▁다이어트	-9.04733
▁떠난	-9.04748
▁현상이에요	-9.04755
▁음식	-9.04764
▁오랜만에	-9.04786
▁집안일	-9.04786
▁괜찮아질	-9.04794
▁우연	-9.04796
▁휴식	-9.04801
▁바보	-9.04801
▁떨	-9.04831
▁상사	-9.04915
▁취미	-9.05039
▁좋을텐데	-9.05054
▁초	-9.05125
분	-9.05139
을지도	-9.05151
▁한잔	-9.05178
▁지나갈	-9.05197
▁차분	-9.05237
▁준	-9.05261
▁학	-9.0527
▁만남이	-9.05307
▁여자친구와	-9.05337
▁중요하	-9.05385
▁말씀해보세요	-9.05455
▁썸타는	-9.05497
▁풀	-9.05517
▁되기	-9.05659
▁확인	-9.05686
▁정리하	-9.05815
▁이상해	-9.05851
▁따로	-9.06061
▁사랑하는데	-9.06156
▁키	-9.06229
▁것을	-9.06363
케	-9.06397
▁부분	-9.06401
▁드시	-9.06405
▁휴가	-9.06513
▁갈까	-9.06522
▁어렵	-9.06694
▁해결	-9.06947
▁시원	-9.07073
워	-9.07421
▁선택일	-9.07673
▁만나면	-9.08091
▁되는데	-9.08137
▁커	-9.08157
▁마셔	-9.0827
으세요	-9.08291
▁쉬는	-9.08312
▁해줘	-9.08445
▁살펴	-9.08483
▁추억이	-9.08549
▁죽	-9.08713
▁인사	-9.08748
▁후련하	-9.08783
어보세요	-9.08857
▁이별에	-9.08994
▁칭찬	-9.09526
▁싫은	-9.09615
▁썸이	-9.09758
▁운명	-9.09801
▁귀엽	-9.10396
▁주지	-9.10419
▁살까	-9.10476
기는	-9.1054
까요	-9.10604
▁필요할	-9.10938
료	-9.11049
▁뒤	-9.11094
밖에	-9.11152
▁쓰레기	-9.11154
짐	-9.11168
션	-9.112
락	-9.11222
▁졸업	-9.11342
▁바뀔	-9.11353
▁미래	-9.11416
▁돌	-9.1145
▁만났는데	-9.11528
▁소화	-9.11591
▁어쩌지	-9.1172
▁앞으로	-9.11734
▁생각나는	-9.11748
▁양	-9.11791
▁장거리	-9.11894
갑	-9.11905
▁없애	-9.11908
▁과정	-9.1194
돈	-9.11995
▁공	-9.11995
▁빌려	-9.12097
▁빼	-9.12108
▁꿈이	-9.12111
이면	-9.12242
▁가능성	-9.12264
▁그리워	-9.12481
▁밖에	-9.12528
▁붙잡고	-9.12748
▁말도	-9.12845
▁많죠	-9.12879
▁쓰는	-9.12892
예	-9.12895
▁번호	-9.12904
▁중인	-9.12976
▁안와	-9.13185
▁없는데	-9.13271
▁일상	-9.13365
▁위로해	-9.13437
▁상처를	-9.13495
▁않으면	-9.13519
▁괜찮아졌	-9.13773
▁만드	-9.13832
▁존재	-9.13855
▁소식이	-9.13896
▁모르겠네	-9.13925
▁연락처	-9.14014
성	-9.14042
▁이거	-9.14172
▁여기	-9.14184
▁잡	-9.14197
▁울어	-9.14389
▁떠	-9.14471
▁뜻	-9.14516
▁없으면	-9.14544
▁불편	-9.1482
▁학원	-9.14836
▁만났	-9.14885
▁피해	-9.14983
▁다음	-9.15003
▁다르겠지	-9.15055
▁있고	-9.15259
▁기운	-9.15459
▁채워	-9.15589
▁살아야	-9.15657
▁곳에	-9.15707
르	-9.15904
주가	-9.16029
겨	-9.16041
▁키우	-9.16114
▁되면	-9.16167
ᅲ	-9.16352
▁배우	-9.1656
▁연락하지	-9.16566
▁무시하	-9.16716
▁고민하	-9.1678
▁사람이에요	-9.16782
들을	-9.17093
▁최	-9.17314
원	-9.17484
▁좋겠지	-9.17749
말	-9.18031
립	-9.18043
▁생각나네	-9.1809
▁외로워	-9.18096
▁당당하	-9.18111
▁믿어	-9.18112
▁보기	-9.18254
옴	-9.18405
친구가	-9.18482
▁사귈	-9.18489
▁느려	-9.18495
▁대학	-9.18505
▁미친	-9.18509
▁마스크	-9.18513
▁기념일	-9.18513
▁추워	-9.18544
▁치과	-9.18548
▁누군가	-9.18565
▁결과	-9.1861
▁잊어버리세요	-9.18623
▁지쳤나봐요	-9.18627
▁벗어나	-9.18656
▁친구들과	-9.18671
▁사랑한다	-9.18672
▁그랬	-9.18753
▁8	-9.18825
▁쐬	-9.18825
▁실감	-9.18852
▁꿨어	-9.18863
▁않네	-9.18878
▁걱정하지	-9.19072
▁자격	-9.19146
할때	-9.19221
▁크게	-9.19245
▁못할	-9.19262
박	-9.19295
▁했으면	-9.19329
었던	-9.19438
▁우	-9.195
▁타는데	-9.19578
하거나	-9.19704
▁있겠지	-9.19747
피	-9.19783
▁어디서	-9.19813
▁선물이	-9.19814
는거	-9.19993
▁꿈에서	-9.20007
됐어	-9.20067
▁거울	-9.20117
말고	-9.20143
▁휴	-9.20234
▁미워	-9.20337
▁했던	-9.20344
종	-9.20346
이란	-9.20391
▁챙겨드	-9.20452
▁솔직하	-9.2057
▁흘렀네	-9.20611
▁사랑해서	-9.20616
▁편한	-9.2064
▁도서관	-9.20693
렇게	-9.20884
▁달라	-9.21278
▁결혼식	-9.21324
▁명	-9.2143
▁왔는데	-9.21552
▁궁금하네	-9.21583
▁인생이	-9.21609
▁피곤해	-9.21611
별	-9.21669
▁독	-9.21698
▁집중	-9.2177
잡고	-9.21865
▁집에서	-9.21937
▁올려	-9.22118
▁왔	-9.22156
▁똑같	-9.2218
▁찍	-9.22237
▁듣고	-9.22284
록	-9.22621
으	-9.22675
▁재	-9.22979
하시	-9.22987
▁힘든가	-9.23073
오네	-9.23112
▁맞춰	-9.23126
느라	-9.23268
▁반대	-9.23413
▁여자들	-9.23476
▁변하	-9.23521
▁사랑하	-9.23957
▁높	-9.24001
▁취업	-9.2406
어서	-9.24088
이라고	-9.24114
었길	-9.24128
좀	-9.24183
라는	-9.24304
런	-9.24486
저	-9.24569
▁거절	-9.24632
▁존중	-9.24805
▁용	-9.25098
▁짐	-9.25353
▁몰라	-9.25413
▁공부하	-9.25424
혀	-9.25458
▁자연스	-9.25513
▁안하는	-9.25658
▁동거	-9.25712
었는데	-9.25746
될	-9.25806
▁무섭	-9.25915
당	-9.25953
동	-9.26005
팅	-9.26037
▁푹	-9.26097
▁생각하지	-9.26128
▁계획	-9.2617
더라고요	-9.2617
▁혹시	-9.26175
▁시계	-9.26179
▁분명	-9.26184
▁평소	-9.26185
▁은근	-9.26188
▁인형	-9.2619
▁심호흡	-9.26197
▁권태기	-9.26197
▁온전	-9.262
▁언제쯤	-9.2622
▁피부	-9.26221
▁질	-9.26239
▁헤어졌는데	-9.26317
년이	-9.26325
▁떨어졌어	-9.26375
▁관심사	-9.26497
▁통보	-9.26516
▁희망	-9.26609
▁미세먼지	-9.26659
▁그동안	-9.2666
약	-9.2669
▁친한	-9.26695
▁먹을까	-9.26877
▁어울리	-9.26934
▁잤	-9.2703
▁싫	-9.27078
▁이건	-9.27131
▁회사에서	-9.27139
▁증거	-9.27145
▁말할	-9.27307
▁찾아올	-9.27375
▁행복하게	-9.27387
▁저한테	-9.27536
▁멋있	-9.27544
▁문득	-9.27545
냐고	-9.2755
한데	-9.27553
▁보고싶다	-9.27587
▁순	-9.27687
▁취	-9.27789
▁없지	-9.27803
▁만들어보세요	-9.27814
▁있지만	-9.28052
▁방학이	-9.2812
준	-9.28183
▁선톡	-9.28226
▁저도요	-9.28244
▁까먹었	-9.28311
▁들어가	-9.28382
▁거야	-9.28394
주는	-9.28426
새	-9.28507
매	-9.28634
▁놀고	-9.28641
▁썸인	-9.28775
▁사귀기	-9.28858
▁크	-9.28944
했다	-9.28948
▁자신만	-9.29037
▁이해해	-9.29073
건지	-9.29166
한다면	-9.29215
▁미치겠	-9.29341
▁감정에	-9.29568
▁왔다	-9.29629
▁미	-9.29754
▁적응	-9.29756
대요	-9.29768
▁가져보	-9.29864
▁행복할	-9.29926
▁무서운	-9.30019
한다	-9.30059
▁꾸	-9.30122
▁심하	-9.30192
창	-9.30389
▁본	-9.3039
움	-9.30562
▁멍	-9.30876
▁방	-9.31006
이네	-9.31186
▁차별	-9.31237
병	-9.31245
▁고통	-9.31393
잠을	-9.31403
▁부모님이	-9.3195
▁걷	-9.31995
▁소개	-9.32012
▁자세	-9.3214
▁듣	-9.32252
▁아는데	-9.32353
봤어	-9.32456
▁크리스마스	-9.32474
▁것들	-9.32627
▁처음에	-9.3275
께	-9.32788
▁한달이	-9.32956
▁기본	-9.3297
▁습관이	-9.33002
▁사실	-9.33004
▁망	-9.33036
▁지쳐	-9.33068
▁문	-9.33094
하려고	-9.3314
메	-9.33224
▁포기	-9.3324
▁않게	-9.33358
▁달라고	-9.33369
부	-9.33455
▁부러워	-9.33486
▁깊	-9.33551
기만	-9.33612
는지	-9.33673
▁스	-9.33724
▁부족한	-9.33737
▁몰랐	-9.33867
▁아프네	-9.3392
▁사이에	-9.33928
▁친구로	-9.3411
▁잊	-9.34327
▁완벽	-9.3436
었	-9.34363
▁걔	-9.3443
▁현재	-9.3443
링	-9.3443
곰	-9.3443
▁축구	-9.34438
▁자고	-9.34499
▁멈추	-9.34502
▁스키	-9.34503
▁드라마	-9.34522
▁이겨낼	-9.34525
▁귀여워	-9.34532
차근	-9.3456
▁불러	-9.34565
▁응원합니다	-9.34584
▁지난	-9.34591
▁이성으로	-9.34676
▁끝난	-9.34682
▁막말	-9.34725
▁재미있	-9.34732
▁사소	-9.34779
쳐	-9.34876
▁안됐는데	-9.34962
▁오해	-9.3498
▁지금처럼	-9.35005
▁말투	-9.35006
▁시어머니	-9.3502
▁연	-9.3503
▁알면서도	-9.35043
▁중요	-9.35094
▁헤어지자고	-9.35113
▁깊은	-9.35238
▁많은데	-9.35262
▁사랑한다면	-9.3533
▁절	-9.35349
▁똑같은	-9.35353
▁편할	-9.35355
▁나왔어	-9.35363
구나	-9.35406
▁이혼	-9.35415
렸어	-9.35434
▁인상	-9.35442
▁됐으면	-9.35509
▁조절	-9.35533
남	-9.35551
▁부러워요	-9.35596
▁짧은	-9.35656
됐는데	-9.35739
될까	-9.35822
이라는	-9.35856
▁집착	-9.35948
▁내리	-9.36022
▁평생	-9.36089
▁추천해	-9.36091
▁됩니다	-9.36216
▁끝났	-9.36285
▁성격	-9.36374
하니까	-9.36405
▁좋지만	-9.36534
인듯	-9.36621
▁진급	-9.36781
끼	-9.36814
하다가	-9.36838
▁힘들어서	-9.36846
▁안전	-9.36874
▁모아	-9.3692
▁함	-9.37025
▁표현해	-9.37139
▁잊어	-9.37172
▁놓	-9.37473
▁텐데	-9.37551
▁통해	-9.37552
▁말씀해	-9.37557
▁건강에	-9.37613
▁내는	-9.37675
양	-9.37697
줬	-9.37705
▁자신에	-9.37714
▁일주일	-9.37733
▁라면	-9.37822
초	-9.37848
▁주변에	-9.38199
▁어서	-9.38203
▁슬퍼	-9.38264
▁있을거예요	-9.38299
꺼	-9.3845
사람	-9.38557
▁생겼네	-9.38563
지지	-9.38601
콩	-9.38656
▁직접적	-9.3868
▁비가	-9.38724
▁출근	-9.38837
▁놀러	-9.3889
▁지나가	-9.38918
▁분이	-9.38942
▁피하	-9.38944
▁부럽네	-9.39612
▁고백하는	-9.39651
글	-9.39677
였어	-9.39707
▁헤어져야	-9.39746
▁해야겠	-9.39827
▁없어서	-9.39929
▁바꿔	-9.39939
▁마주치	-9.39999
▁바뀌	-9.40289
▁남기	-9.4029
▁거니	-9.4037
▁남았	-9.40423
▁충전	-9.40565
▁방학	-9.40602
였	-9.40614
다가도	-9.40789
▁먹었	-9.40903
▁않으	-9.40917
▁못했	-9.41055
▁했나	-9.41127
▁진	-9.41242
▁그사람	-9.41265
▁참아	-9.41385
▁해주는	-9.41398
싶어	-9.41484
▁봐도	-9.41508
지내고	-9.41519
▁배려	-9.41536
작	-9.41571
▁사귀어	-9.41675
▁후회하	-9.41687
▁짝사랑이	-9.41692
▁데려다	-9.41707
해줘	-9.41856
▁변	-9.41931
▁두고	-9.42021
▁지나	-9.42056
▁과	-9.42068
▁마련	-9.42184
▁틀	-9.42251
▁필요하겠	-9.42282
▁결정이었을	-9.4246
▁싸우면	-9.42473
▁개인	-9.42499
▁지나갔	-9.42556
▁전부	-9.42629
▁계	-9.42664
리고	-9.4269
전에	-9.42782
재	-9.42875
▁짜증	-9.42887
▁과정이	-9.42924
와서	-9.42933
▁회사에	-9.43096
플	-9.43231
▁역시	-9.4328
▁놓고	-9.43303
리기	-9.43366
달째	-9.43401
▁풀어	-9.43417
▁타이밍이	-9.43476
▁이해해주	-9.43477
▁가벼	-9.43505
토	-9.43521
▁설렘	-9.43521
▁페북	-9.43521
▁맥주	-9.43521
▁아름다	-9.43524
▁뭐하	-9.43547
▁골라	-9.43548
▁각자	-9.43549
▁진실	-9.43565
▁달달	-9.43573
▁냉장고	-9.43603
▁가능할	-9.43604
▁기분전환	-9.43618
▁이별통보	-9.4363
▁하루하루	-9.43634
▁그리움	-9.43643
▁제발	-9.43656
▁아빠	-9.43656
▁떨어져	-9.43659
▁여전	-9.4367
▁잊혀질	-9.43701
▁예민한	-9.43712
▁집들이	-9.43724
▁잠수	-9.43752
▁상상	-9.43787
▁전환	-9.43795
▁과거	-9.43832
▁잘해줘	-9.4385
▁걸릴	-9.43908
법	-9.43924
▁남겨	-9.43975
▁적어보세요	-9.43983
▁다행이	-9.44015
▁넌	-9.44018
▁근처	-9.44087
▁없겠지	-9.44096
▁전공	-9.44121
▁두번	-9.44169
▁바꾸	-9.44197
▁환승이별	-9.44214
조차	-9.44226
▁돌아가	-9.44259
▁새로	-9.44295
▁아니야	-9.44443
▁접	-9.44464
웠	-9.44597
▁철	-9.44629
▁고백해도	-9.44635
혼자	-9.44637
▁알려주	-9.44678
▁어린	-9.44729
▁마련이	-9.4477
▁야근	-9.44783
▁과일	-9.44816
▁봄이	-9.44837
▁동안	-9.45003
▁믿음이	-9.45022
▁결심	-9.45037
▁웃어	-9.45042
▁드네	-9.45232
▁살기	-9.45266
▁맘에	-9.45363
▁당연	-9.45368
▁비교하	-9.45369
▁쓰고	-9.45506
▁아프네요	-9.45517
▁둘이	-9.45615
▁말까	-9.4567
▁산	-9.45695
▁알면	-9.45863
▁불	-9.45884
▁빠지	-9.46422
▁무엇	-9.46454
▁긍정적	-9.46484
듯이	-9.4651
▁쓴	-9.46552
▁걸어	-9.46586
2	-9.46589
▁쉬어가	-9.46681
▁자리	-9.46694
▁중간	-9.46727
▁됐네	-9.46768
형	-9.46905
두고	-9.46957
▁청	-9.46993
▁배워	-9.47024
▁생각이에요	-9.47049
▁담	-9.47171
ᄏ	-9.47417
▁썸인가	-9.47541
▁놀이	-9.47721
▁좋아해요	-9.47808
김	-9.47903
▁갔다	-9.47937
▁주말이	-9.48021
▁찾아가	-9.48123
▁맞았	-9.48233
▁찾기	-9.48252
인가봐	-9.48486
▁반지	-9.48549
▁그것	-9.48623
▁짓	-9.48928
▁힘들었을	-9.48942
▁인간	-9.49022
▁성공하	-9.49254
▁배우는	-9.49266
▁오면	-9.49588
먹기	-9.49947
▁사과	-9.49979
▁늘어	-9.50076
▁사고	-9.501
▁더워	-9.50199
▁몰	-9.505
▁마음으로	-9.50585
만으로	-9.50706
▁읽	-9.50711
속에서	-9.50732
▁선생님	-9.50743
▁부분이	-9.50901
▁끊	-9.50919
▁사야	-9.5097
▁좋아하나	-9.5101
▁가능하	-9.51012
지고	-9.51099
▁클럽	-9.51133
▁이어	-9.51197
▁남을	-9.51201
▁복잡하	-9.51223
▁순간이	-9.51227
▁마무리	-9.51374
▁생각에	-9.51541
▁다리	-9.51585
스러운	-9.51752
▁잡아	-9.51876
▁이럴	-9.51893
▁드릴	-9.51895
▁있으니	-9.5205
▁걱정이	-9.52116
▁전해	-9.52318
▁이름이	-9.52407
▁많을	-9.52466
▁음악	-9.52473
했나봐	-9.52483
바	-9.52627
▁기다리면	-9.52682
▁사귄	-9.52699
▁타다	-9.52722
▁춥	-9.52743
시간	-9.52959
▁생	-9.53053
▁뿌	-9.5323
▁맘이	-9.53327
량	-9.53435
곤	-9.53473
염	-9.53521
▁보험	-9.53521
▁공무원	-9.53521
▁벚꽃	-9.53521
▁청첩장	-9.53521
▁휴대폰	-9.53521
껏	-9.53521
닉	-9.53521
▁맡	-9.53521
▁컨	-9.53521
▁오랫	-9.53521
▁아까워	-9.53521
▁달콤	-9.53522
▁억지로	-9.53522
▁파혼	-9.53522
▁외롭	-9.53524
▁배고파	-9.53527
▁목표	-9.53528
▁30	-9.53531
▁딸기	-9.53531
▁앞머리	-9.53535
▁빠르	-9.53536
▁향수	-9.53586
▁헤어질	-9.53618
▁이겨내	-9.5364
▁행운	-9.53651
▁지칠	-9.53662
▁고백했는데	-9.53747
▁다녀오세요	-9.53757
▁필요하다면	-9.53764
▁답답해	-9.53791
▁받았	-9.53824
▁않겠지만	-9.53871
▁태어난	-9.53878
▁좋아해주는	-9.53896
▁조급해	-9.53903
더	-9.53939
▁곁에	-9.53973
▁9	-9.54054
▁허리	-9.54108
▁아프다	-9.54113
▁sns	-9.54161
싶어요	-9.54189
▁주말에	-9.5423
▁소비	-9.54292
▁솔직한	-9.54296
▁만나기로	-9.54383
▁잘했어요	-9.54395
▁아무렇지	-9.54416
▁연애에	-9.54438
▁극복할	-9.54448
▁글로	-9.54479
년간	-9.54498
▁외로	-9.54531
▁먼지	-9.54543
▁생활	-9.54571
▁터	-9.54699
▁놔	-9.54711
▁답답한	-9.54728
▁맛난	-9.5476
▁느끼는	-9.54899
▁인정받	-9.54936
▁노래방	-9.54949
▁좋았	-9.54984
▁유지하	-9.55172
먹고	-9.55274
지면	-9.55328
▁있다는	-9.5537
반	-9.55397
▁동물	-9.55443
연	-9.5547
▁꿀	-9.55536
▁없겠네요	-9.55611
▁않는데	-9.55742
▁챙겨주	-9.55758
▁표현이	-9.55909
▁애들	-9.5592
▁입어	-9.55922
▁있었나	-9.55995
▁궁금	-9.56035
▁혼	-9.56038
▁슬	-9.56051
▁옷이	-9.56231
냈어	-9.56237
▁허	-9.56277
▁생각하면	-9.56315
▁부자	-9.5636
▁선생님이	-9.56379
▁마다	-9.56534
▁돌려	-9.56548
▁잊기	-9.56592
▁노력하는	-9.56624
레	-9.56698
▁산책	-9.56828
▁있네	-9.56831
치고	-9.56939
▁들었어	-9.56954
▁자연	-9.56959
▁능력	-9.5702
▁남사친이	-9.57021
▁나에게	-9.57031
▁나온	-9.57181
▁많지	-9.57327
르고	-9.57356
▁남자랑	-9.5736
폰	-9.57368
▁회식	-9.57376
▁나을까	-9.57382
▁바다	-9.57405
따라	-9.57418
못한	-9.57482
헤어졌네	-9.57489
학	-9.57625
들에게	-9.5772
▁있었	-9.57861
▁하네	-9.58139
▁잊으	-9.58154
▁헤어지면	-9.58352
▁나올	-9.5841
▁들어와	-9.5844
숙	-9.58485
조	-9.58556
산	-9.58645
배	-9.58709
▁소원	-9.58746
▁지켜보	-9.59135
▁매력	-9.5926
▁생긴	-9.59383
▁선택이	-9.59398
하니	-9.59496
▁싸우	-9.59563
터	-9.59695
▁스트레칭	-9.59913
▁시작하	-9.59951
▁불행	-9.60021
결	-9.60035
▁신나	-9.60072
▁남들	-9.60095
▁됐	-9.60259
야돼	-9.60304
가는	-9.60405
▁후에	-9.60432
▁남편	-9.60436
▁돌아	-9.60705
▁드려	-9.60822
고싶어	-9.6128
▁다니	-9.61399
▁ᅲ	-9.61424
갔어	-9.61562
하나	-9.61585
남자	-9.61589
하길	-9.61596
▁착	-9.6161
오	-9.61615
▁삼	-9.61673
▁보니	-9.61728
▁당황	-9.61744
▁말하	-9.61768
안	-9.61833
▁나왔	-9.61969
▁생각했나봐	-9.62073
있	-9.62115
▁썼	-9.62136
▁답이	-9.62175
▁그럴까	-9.62379
거리	-9.62389
▁최악	-9.62425
▁나타	-9.62426
녀	-9.62768
▁생각한	-9.62787
▁놀러가	-9.62815
급	-9.62864
▁몸에	-9.62892
▁냄새	-9.62981
스럽	-9.63033
▁자유	-9.63109
▁가사	-9.63188
나면	-9.63244
▁하는건	-9.63344
▁받으면	-9.63509
▁넘었	-9.63696
기를	-9.63723
▁속에	-9.63741
▁끄	-9.6377
▁의지	-9.63918
▁피곤한	-9.63964
▁신고하	-9.64055
▁향	-9.6419
▁흐	-9.64308
▁공감	-9.64327
▁싫어하는	-9.64511
▁딴	-9.64624
릿	-9.64628
▁공통	-9.64629
했네	-9.6463
▁빼빼로	-9.64632
▁넓	-9.64632
▁땀	-9.64632
▁띄	-9.64632
▁콩깍지	-9.64632
▁핑계	-9.64632
▁염색	-9.64632
▁위로봇	-9.64634
▁외모	-9.64634
▁밝혀	-9.64635
▁깨끗	-9.64635
▁심경	-9.64635
▁명절	-9.64637
▁에휴	-9.64637
▁업무	-9.64637
▁회원	-9.64638
▁차라리	-9.6464
▁노후	-9.64645
▁흔적	-9.64652
▁대출	-9.64655
▁버릴	-9.64659
▁붙여	-9.64659
▁간접적	-9.6466
▁생겨	-9.6466
▁꼬	-9.64667
▁여름	-9.64675
▁언니	-9.64681
▁싸워	-9.64684
▁사업	-9.64684
▁맛집	-9.64695
▁이미	-9.64701
▁달라진	-9.64716
▁외로움	-9.64719
▁일어났	-9.6472
▁다음부터	-9.6473
▁인내	-9.64748
▁경쟁	-9.64748
▁마련이에요	-9.64853
▁별거	-9.64898
▁있더라고요	-9.64926
▁고맙다	-9.65029
▁있었으면	-9.65047
▁계절이	-9.65071
▁나쁘지	-9.65089
▁빠를	-9.65095
▁보냈	-9.651
▁올라	-9.65104
▁아니니까요	-9.6511
▁도와줘	-9.65168
▁그녀에게	-9.65204
▁이러지	-9.65224
▁고쳐	-9.65339
▁프로포즈	-9.65342
▁힘듭니다	-9.65353
▁멋지	-9.65356
▁혼자서	-9.65463
막혀	-9.65504
이었으면	-9.65523
도시	-9.65563
▁가능해요	-9.65755
▁팔	-9.65776
▁결혼하면	-9.65779
▁보이지	-9.658
▁놓아	-9.65809
은연	-9.6583
▁궁금하	-9.65949
▁허전하	-9.6596
▁여자친구에게	-9.66043
▁줄여	-9.66058
▁말해볼까	-9.66071
▁왔으면	-9.66294
▁가능할까	-9.66306
▁배울	-9.66307
▁죄	-9.66351
▁미안해	-9.6645
▁밀당	-9.66554
줬으면	-9.66578
▁너에게	-9.6666
▁어찌	-9.66734
▁끝났어	-9.66744
▁기본이	-9.66789
▁나가기	-9.66801
▁상대에	-9.66836
▁무시	-9.66854
았는데	-9.66898
▁표현하는	-9.66942
하러	-9.67017
▁지워	-9.67031
▁가능한	-9.67034
▁경험이	-9.67053
▁말해주	-9.67151
▁못하	-9.67191
▁일하는	-9.67354
▁선배	-9.67433
▁그대	-9.67552
해질	-9.67569
봐도	-9.67613
▁좋으면	-9.67658
▁재밌는	-9.67749
▁찍어	-9.67759
▁응원해	-9.67795
▁잘못인	-9.67828
▁고백하	-9.67863
▁지울	-9.67894
셨나봐	-9.67972
또	-9.67979
리를	-9.67987
▁울	-9.68176
▁교회	-9.68284
하고싶어	-9.6829
▁긴장	-9.68401
▁헤어지는	-9.68606
▁편해	-9.68624
▁이해가	-9.68653
네여	-9.68667
▁사랑해주	-9.68949
▁사람만	-9.68997
▁도와주	-9.69125
▁나보다	-9.69135
▁받은	-9.69166
▁재미있어	-9.69195
짓	-9.69225
▁해야할까	-9.6923
▁나아질	-9.69324
▁관리하	-9.69343
▁뿐이	-9.69367
▁심리	-9.69414
▁늦은	-9.69513
▁말하지	-9.69544
고싶은데	-9.69569
▁있었을	-9.69603
개월이	-9.69603
▁내보세요	-9.69684
▁우울해	-9.69691
▁가족이	-9.69803
▁흔들리지	-9.69982
▁헤어지자	-9.69999
체	-9.70056
▁간절	-9.70083
을텐데	-9.70098
문	-9.7011
▁원망	-9.70181
▁괜찮아지	-9.70268
▁여사친이	-9.703
▁지치	-9.70368
었으면	-9.70445
번호	-9.70616
코	-9.70635
▁잘못이	-9.70695
▁했나봐	-9.70761
각	-9.70792
티	-9.70822
▁달라지	-9.70906
▁이상형이	-9.70934
위	-9.7094
▁입을	-9.70984
콜	-9.71047
▁모르겠	-9.71141
▁이유는	-9.71171
합	-9.71201
▁준비하는	-9.71242
▁가는데	-9.71251
로부터	-9.71305
▁상태	-9.71517
맛	-9.7153
▁마셔야	-9.71567
▁흔들리	-9.716
▁오네	-9.72072
년의	-9.72195
▁썸타	-9.72268
▁거의	-9.72375
▁흘렀	-9.72507
우면	-9.72787
기로	-9.7283
마요	-9.72857
▁어머	-9.7318
▁과식	-9.73204
▁보다	-9.73309
▁않을까	-9.73323
▁이용	-9.73532
▁왔네	-9.73715
봤는데	-9.73739
▁연락하	-9.7383
리가	-9.73836
▁어렵네	-9.73927
▁없을까	-9.74163
▁넣	-9.74248
▁상대방에	-9.74248
▁결혼할	-9.74303
▁돌아오	-9.74356
▁소심	-9.74587
▁기다리지	-9.74599
▁끝일	-9.74624
▁있기	-9.74661
름	-9.74685
▁차리	-9.74754
▁버	-9.74889
▁의심	-9.75019
▁실망	-9.75022
▁타이밍	-9.75074
▁믿음	-9.75221
▁온다	-9.75334
▁운명이	-9.75437
▁쓰이	-9.75451
▁슬프	-9.75462
▁씻	-9.75485
▁태도	-9.75707
이별	-9.75728
▁평	-9.75828
셨	-9.75842
▁그럼	-9.7606
▁기억이	-9.76085
▁견뎌	-9.76104
▁어떨까	-9.76114
친구	-9.7618
▁어쩌	-9.76482
▁술이	-9.76534
▁한다	-9.76538
▁노력해	-9.76751
▁오랜	-9.76759
▁판단	-9.76811
▁알아차	-9.76831
▁길어	-9.76875
▁가자	-9.76879
▁퇴근	-9.76923
▁여기까지	-9.76978
님	-9.76986
▁갚	-9.77072
▁디	-9.77084
▁단단	-9.77092
▁택배	-9.77132
▁A	-9.77132
▁느낄	-9.77132
▁땡	-9.77132
▁삼겹살	-9.77132
▁신뢰	-9.77132
▁에너지	-9.77132
▁웬수	-9.77132
▁의미부여	-9.77132
▁자괴감	-9.77132
뻑	-9.77132
왤	-9.77132
킁	-9.77132
푼	-9.77132
▁잇몸	-9.77133
▁메모	-9.77133
▁우선순위	-9.77133
▁인턴	-9.77134
▁통화	-9.77142
▁우선	-9.77143
▁애교	-9.77144
▁거기까지였	-9.77146
▁매너	-9.77149
▁영화관	-9.77152
▁멀리	-9.77154
▁의욕	-9.77154
▁거기까지인가봐요	-9.77159
▁실내	-9.77178
▁천재	-9.77182
▁보일러	-9.77185
▁정신차리	-9.77187
▁여우	-9.77192
▁성향	-9.77194
▁느껴져	-9.77196
교통	-9.77203
▁신중	-9.77206
▁기준	-9.77217
개월째	-9.77219
▁특별	-9.77222
▁받아들이기	-9.77234
꼬박	-9.77235
▁성별	-9.77251
▁비난	-9.7726
▁지갑	-9.77307
▁잘못된	-9.77327
▁길러	-9.77372
▁중국어	-9.77398
▁떨리	-9.77417
친	-9.77437
더라구	-9.77438
▁주식	-9.77453
▁생겼으면	-9.77493
▁흐르고	-9.77537
▁좋았는데	-9.77546
▁움직이	-9.77562
▁성공할	-9.77618
▁시선	-9.77621
▁속상해	-9.77627
▁재미없	-9.77701
세	-9.77702
▁배우자	-9.7773
▁누구에게	-9.77777
▁좋아하시	-9.77792
▁들여	-9.77806
▁아니지만	-9.77825
▁지진	-9.77842
지네	-9.77843
▁센스	-9.77851
▁새해	-9.77876
▁베터리	-9.77883
▁맞을까	-9.77897
▁생각했는데	-9.7794
▁이불	-9.77976
▁신혼	-9.78083
▁놓치	-9.78095
▁참견	-9.781
▁경	-9.78135
▁그럼요	-9.78216
▁차가워	-9.78225
거려	-9.7824
▁슬프네	-9.7835
▁운전	-9.7835
▁착한	-9.78359
▁잊는다는	-9.78466
▁큰일	-9.78478
▁알기	-9.78569
▁위해서	-9.78631
▁찌	-9.78686
▁쓸	-9.78708
▁자격증	-9.78711
▁뭐할까	-9.78714
▁마시면	-9.78731
▁가족들	-9.78811
▁느껴지	-9.78811
▁나눠보	-9.78896
▁버려	-9.79
▁보낼	-9.7903
▁시키	-9.79031
▁여자친구한테	-9.79066
▁같지	-9.79103
▁싸웠	-9.79162
해줄	-9.79212
▁고장	-9.79288
▁널	-9.79335
▁지내는	-9.79402
▁들었	-9.79409
▁치료	-9.79465
▁같다	-9.79571
▁귀찮	-9.79678
▁속도	-9.79685
제가	-9.79728
▁걱정되	-9.79938
▁모르게	-9.79996
▁상관없	-9.80024
▁이기적인	-9.80041
▁많아서	-9.8009
▁복잡한	-9.80183
▁깨요	-9.8019
▁파도	-9.80208
▁해야할지	-9.80307
▁착각	-9.80355
▁애매하	-9.80395
▁노는	-9.80569
▁실	-9.8058
▁설	-9.80596
▁알았어	-9.80618
▁대단하	-9.80668
▁위기	-9.80737
거같아	-9.80798
▁물리적	-9.80802
▁시작해	-9.80866
▁솔직	-9.80869
난다	-9.80876
나게	-9.809
▁외	-9.8091
▁푸	-9.80919
▁아니죠	-9.80962
▁친해지는	-9.80982
화	-9.81046
▁결	-9.81131
▁있을까요	-9.81135
▁소문	-9.81214
▁신경쓰이	-9.81323
린다	-9.81332
본	-9.81363
래요	-9.81507
▁있다	-9.81557
▁카드	-9.81626
복	-9.81626
만해도	-9.81632
▁어장	-9.81699
▁답답할	-9.81732
았어	-9.81874
함이	-9.82155
▁아닌가	-9.82387
▁있음	-9.82431
테	-9.8252
▁무시하는	-9.8256
▁놀러가고	-9.82667
▁먹으	-9.8281
▁시원하	-9.8283
▁찾는	-9.82924
▁문신	-9.82963
▁피곤	-9.83028
▁심한	-9.83094
▁도전해	-9.8333
▁아침이	-9.8346
꾸	-9.8346
▁다가	-9.83574
졌으면	-9.83616
타기	-9.83718
아지	-9.83719
개	-9.83784
▁아기	-9.83861
▁참는	-9.83931
탈	-9.83961
력	-9.83968
▁악몽	-9.84015
▁이직	-9.84108
▁소식	-9.8417
▁올해	-9.84247
▁바라는	-9.84393
▁꺼	-9.84435
▁보여주	-9.84499
▁고치	-9.84569
밥	-9.84586
▁싱숭생숭	-9.84657
▁사랑했나봐	-9.84657
▁끝에	-9.84712
놈	-9.8477
4	-9.85049
▁다양하	-9.85122
▁생긴다	-9.85122
▁서	-9.85168
추	-9.85251
방법	-9.8528
▁있을지	-9.85288
▁행복해지	-9.85363
수도	-9.85546
극	-9.85642
▁아니었	-9.85704
▁취해	-9.8581
▁따뜻하	-9.85844
허	-9.85873
▁죽고	-9.85939
▁좋아하는거	-9.85977
▁성장	-9.85983
▁동생	-9.85993
▁싸움	-9.86101
▁절약	-9.86355
▁야경	-9.86462
▁빌어	-9.86602
시면	-9.86667
▁장소	-9.86717
일이	-9.86795
나서	-9.86844
하셨	-9.86867
▁누	-9.86967
▁신청	-9.87038
▁한거	-9.87276
▁힘들겠	-9.87368
하지만	-9.87427
▁잡으	-9.87532
▁찾아오	-9.87637
▁지쳤	-9.87707
▁거면	-9.87808
▁헤어	-9.87834
▁심	-9.8794
잖아	-9.88201
▁하던	-9.88271
▁놀랐	-9.88295
▁후회해	-9.88384
▁가만	-9.88432
▁전남친이	-9.88646
되는	-9.88749
▁바라지	-9.88896
▁아프지	-9.88939
▁오늘이	-9.89019
▁다르겠	-9.8912
▁삭제	-9.8913
▁기원	-9.89458
그	-9.89491
▁받아들	-9.89607
척	-9.89833
되면	-9.89835
▁잘해	-9.90081
▁취향	-9.902
만한	-9.90205
▁충전하	-9.9021
하던	-9.9022
▁고마워	-9.90236
▁기간	-9.90307
▁필	-9.90479
▁맞을	-9.90544
▁아닐까	-9.90633
▁전화가	-9.90776
받고	-9.90841
▁같아서	-9.90868
▁취직	-9.9087
▁의외	-9.90949
이길	-9.90991
▁세상이	-9.91019
▁안타깝	-9.91078
▁가능해	-9.91102
▁살면	-9.91132
되는데	-9.91257
쯤	-9.91301
▁찔	-9.91377
▁택시	-9.914
즈	-9.91416
흥	-9.91418
▁결혼적령기	-9.91418
▁노트북	-9.91418
▁동호회	-9.91418
▁마침표	-9.91418
▁봉사활동	-9.91418
▁비싼	-9.91418
▁새출발	-9.91418
▁셀카	-9.91418
▁아름답	-9.91418
▁앉	-9.91418
▁유효기간	-9.91418
▁출퇴근	-9.91418
▁트라우마	-9.91418
▁후유증이	-9.91418
▁흥미	-9.91418
꽤	-9.91418
쩍	-9.91418
▁여드름	-9.91418
▁자존심	-9.91418
▁강렬	-9.91419
▁단둘이	-9.91419
▁사회생활	-9.9142
▁두려움	-9.9142
▁고쳐쓰는	-9.9142
▁즐겁	-9.91421
▁데려가	-9.91421
▁제주도	-9.91422
▁괴로워	-9.91423
▁신혼여행	-9.91424
▁어필해	-9.91424
▁최근	-9.91425
▁표정	-9.91427
▁버티	-9.91428
▁취미생활	-9.9143
▁증오	-9.91431
▁축복	-9.91431
▁발목	-9.91433
▁제자리	-9.9144
▁맞추	-9.91451
▁세워	-9.91455
▁두셨	-9.91456
▁흘려	-9.91461
▁15	-9.91468
▁좋으시	-9.91471
▁깨닫	-9.91482
▁나아졌	-9.91523
▁깨달음	-9.91527
▁정리될	-9.91542
▁답답하네	-9.91544
▁아름다워	-9.91547
▁안되겠지	-9.91551
▁부드	-9.91561
▁건조	-9.91717
▁공허함이	-9.91719
▁내요	-9.91731
▁포장	-9.91763
▁욕심	-9.91765
하는거	-9.91778
줬는데	-9.91788
▁수다	-9.91791
▁점심	-9.91862
▁노력해보	-9.91928
▁멋져요	-9.92016
▁불안해	-9.92035
▁뒤에서	-9.92043
▁호의	-9.92047
▁호	-9.92057
▁좋아했는데	-9.92067
▁일들이	-9.92084
▁지나간	-9.92113
▁중요한데	-9.92147
▁베	-9.92149
▁영원한	-9.92163
▁뻔	-9.92194
▁빠져	-9.92235
▁충격	-9.92245
▁정류장	-9.92251
일차	-9.92315
▁언제든	-9.92329
▁그러게요	-9.9235
▁예감	-9.92362
▁어려	-9.92375
▁결정할	-9.924
▁하루에도	-9.92425
▁그저	-9.92464
▁가치	-9.92546
▁행복해질	-9.92605
▁안되는데	-9.92641
▁생각날	-9.92666
▁코스	-9.9282
▁변한	-9.9295
▁포	-9.92999
▁짠	-9.93037
▁땅	-9.93037
▁떠났	-9.93085
니가	-9.9309
▁패턴	-9.9314
▁지금보다	-9.9322
▁생각해봐요	-9.93301
▁성적	-9.93314
▁애기	-9.93351
이라니	-9.93541
▁봐서	-9.93543
▁심장	-9.93629
▁여자와	-9.93648
▁어떡	-9.93672
▁포기하는	-9.93717
▁많다	-9.93857
▁떨어지	-9.93863
▁좋을거	-9.93896
▁나한테만	-9.93932
▁인정하	-9.93939
▁먹었어	-9.93946
라니	-9.94076
▁째	-9.94147
▁남자한테	-9.94264
▁하고싶	-9.94304
▁약이	-9.94417
▁될거예요	-9.94542
▁다가가는	-9.94572
▁말라고	-9.9461
싶다	-9.94679
▁변명	-9.94689
시간이	-9.94727
왔는데	-9.94736
▁짧지	-9.94752
▁걸려	-9.94765
▁기간이	-9.94796
▁부담스러워하	-9.94829
▁되겠지	-9.94842
▁받아야	-9.94853
▁끝인	-9.94855
정이	-9.94881
▁탔	-9.94881
▁그러는	-9.9498
▁비슷	-9.95001
▁이어나가는	-9.95056
▁당황했	-9.9513
▁상의	-9.952
▁쓰지	-9.95202
▁조건	-9.95217
아서	-9.95233
▁잊어야	-9.95328
▁싶다고	-9.95364
▁밤에	-9.95514
▁남은	-9.95653
▁놈	-9.95682
번호를	-9.9571
▁하지마	-9.95902
▁그럴만	-9.95917
▁됐어요	-9.96004
▁집착해	-9.96171
▁말해줘	-9.96276
▁웃으면	-9.96362
▁다닐	-9.96423
▁결혼해야	-9.9656
▁하시	-9.96588
▁받아보	-9.96793
▁심어	-9.96889
▁샤워	-9.96915
▁정의	-9.96925
국	-9.96968
▁깔끔	-9.97022
▁잡았	-9.97093
하나봐	-9.97151
오면	-9.97158
▁일에	-9.97195
▁헤어졌	-9.97217
▁부담스러워	-9.97272
▁이성	-9.97462
▁걸음	-9.97463
▁붙잡	-9.97708
▁때문이	-9.9784
▁적어	-9.97863
▁맛있어	-9.98034
▁여행가	-9.98043
▁아니고	-9.98048
▁변하는	-9.98167
분이	-9.98193
▁좋아한다	-9.98353
했지만	-9.98483
▁당신만	-9.98611
▁알려	-9.98617
▁고르	-9.98741
▁얼굴이	-9.98742
능	-9.98747
값	-9.98787
▁나눠	-9.99059
▁말아야	-9.99107
▁사람인데	-9.99148
▁연애하고	-9.99183
▁기다렸	-9.99189
고싶다	-9.99472
되네	-9.99488
매일	-9.99556
형이	-9.99756
▁전화하는	-9.99928
씨	-9.99947
간다	-10.0001
▁나가야	-10.001
▁헬스장에	-10.0012
▁공부해야	-10.0012
야할까	-10.0023
불	-10.0042
강	-10.0052
학기	-10.0055
명	-10.007
▁결정이었	-10.0077
▁살아가	-10.0089
▁당연하	-10.0092
▁까먹	-10.0108
▁간절하	-10.0111
▁사정	-10.0113
▁이별하고	-10.0113
야하나	-10.0113
몸	-10.0114
▁갔	-10.0133
때도	-10.0137
청	-10.0157
▁가까	-10.0162
▁사과하	-10.017
둘	-10.0174
▁서운하	-10.0174
겁	-10.0176
▁일주일이	-10.0178
▁친	-10.018
▁참지	-10.0187
▁때로	-10.0187
▁잘해주는	-10.0194
▁미련없	-10.0201
생활	-10.0204
역	-10.0206
버려	-10.0206
▁잠수이별	-10.021
▁늦어	-10.0213
행	-10.0223
궁	-10.0224
판	-10.023
보여	-10.0231
죄	-10.0231
▁힘들겠어	-10.0243
▁찍었	-10.0253
▁읽어	-10.0268
▁표현해보	-10.0285
▁하려고	-10.0292
▁보고싶	-10.0295
▁그만하고	-10.03
▁늘	-10.0313
▁나온다	-10.0316
언	-10.0322
건데	-10.0325
카드	-10.0328
▁화가	-10.0332
▁뿐	-10.034
▁보게	-10.0345
▁돌려보	-10.035
▁받아들여	-10.0356
▁단계	-10.0359
▁안부	-10.036
외	-10.036
▁진심이	-10.0368
봅	-10.0375
▁삭제하는	-10.0389
▁애매	-10.0394
▁마음만	-10.0404
▁만나보	-10.0412
있어	-10.0417
▁집착하	-10.0426
▁받으	-10.0428
물	-10.044
▁멋	-10.0443
려나	-10.0448
▁별로라	-10.0448
는걸	-10.0452
너무	-10.0455
▁가치관	-10.0458
▁거지	-10.0466
▁봤	-10.0473
▁성	-10.0478
▁운동하	-10.0494
▁있어야	-10.0506
▁부탁해	-10.0522
있어요	-10.0526
양해	-10.0539
▁초대	-10.0545
나는	-10.0555
▁공시	-10.0556
▁노	-10.0568
▁느껴	-10.0574
▁몇일	-10.0578
▁이뤄	-10.058
▁뭔	-10.0589
▁있었어	-10.0595
해졌	-10.0595
진다	-10.0616
▁못하면	-10.0634
워질	-10.0635
▁덜할	-10.0636
▁겨	-10.0647
▁뭐하는	-10.065
▁이러	-10.0655
▁헤어져	-10.0656
▁돌리	-10.0657
▁존중해	-10.066
▁차분하	-10.0668
는구나	-10.0669
침이	-10.0674
▁짱	-10.0679
▁흘러	-10.0681
바이	-10.0696
들고	-10.0717
▁힘드	-10.0735
아주	-10.0756
야할	-10.076
▁솔로	-10.0762
▁좋아하지	-10.0764
찰	-10.0766
▁젖	-10.0773
▁영원	-10.0778
▁일년	-10.0779
▁떠오르	-10.0785
▁헷갈	-10.0789
▁받아들이	-10.0798
▁용서	-10.0799
▁화내	-10.0802
정규직	-10.0804
뚝	-10.0808
▁메뉴	-10.0808
▁기프트콘	-10.0808
▁뒷	-10.0808
▁득템	-10.0808
▁찜질방	-10.0808
▁가늠	-10.0808
▁낚시	-10.0808
▁낭비	-10.0808
▁눈썹	-10.0808
▁무릎	-10.0808
▁보이스피싱	-10.0808
▁부딪혔	-10.0808
▁셀프웨딩	-10.0808
▁쉴	-10.0808
▁스터디	-10.0808
▁슬픔	-10.0808
▁아이스크림	-10.0808
▁애틋	-10.0808
▁어둠	-10.0808
▁어젯밤	-10.0808
▁이벤트	-10.0808
▁잠재력	-10.0808
▁지겨워	-10.0808
▁체육대회	-10.0808
▁합격	-10.0808
▁헛	-10.0808
▁현금영수증	-10.0808
▁화이트데이	-10.0808
궈	-10.0808
바퀴	-10.0808
벅	-10.0808
욱	-10.0808
팸	-10.0808
▁도대체	-10.0808
▁스타트업	-10.0808
▁짜장면	-10.0808
▁쌩얼	-10.0808
▁베풀	-10.0808
▁관련	-10.0808
▁월요일	-10.0809
▁형편	-10.0809
센터	-10.0809
▁애정표현	-10.0809
▁첫인상	-10.0809
▁생리통	-10.0809
▁추석	-10.0809
▁누굴	-10.0809
▁평온	-10.0809
▁무거워	-10.0809
▁치유	-10.0809
▁실례	-10.0809
▁소개시켜	-10.0809
▁혼술	-10.0809
▁교양	-10.0809
▁어떠	-10.0809
▁단호	-10.0809
▁마주쳐	-10.0809
▁분노	-10.0809
강습	-10.081
▁의견	-10.081
▁외국인	-10.081
▁스테	-10.081
▁조카	-10.081
▁소유	-10.081
▁익숙해질	-10.081
▁안경테	-10.081
▁분담	-10.081
▁인공	-10.081
▁택시비	-10.0811
▁커피향	-10.0811
칼로리	-10.0811
▁행복해보여	-10.0811
▁잃어버	-10.0812
▁드라이브	-10.0812
▁걱정된다	-10.0814
▁우린	-10.0814
▁빠른	-10.0814
▁추운	-10.0815
▁시간표	-10.0815
▁대체	-10.0815
▁나누	-10.0816
▁놀아줘	-10.0816
테리	-10.0816
▁노려	-10.0816
▁조용	-10.0817
▁부부	-10.0817
▁모자라	-10.0818
▁동감	-10.0818
▁전역	-10.0818
▁필름	-10.0818
▁일어날	-10.082
▁아님	-10.082
지긋	-10.0821
▁대우	-10.0822
▁챙기	-10.0824
▁걱정되겠	-10.0824
▁장점	-10.0826
▁줄어들	-10.0826
▁자취	-10.0828
▁소주	-10.0829
▁상관없어요	-10.0829
▁한강	-10.083
▁로봇	-10.0832
▁동성	-10.0832
▁책임	-10.0832
▁어려울	-10.0833
▁구멍이	-10.0833
▁주제	-10.0834
▁끝났으면	-10.0834
맥이	-10.0834
▁꺼내	-10.0838
▁무시해	-10.0839
▁지웠	-10.084
▁일요일	-10.0841
▁불공평해	-10.0843
▁금연	-10.0843
▁더러워	-10.0843
▁수영	-10.0843
▁보답	-10.0843
▁끝날	-10.0846
▁먹었는데	-10.0846
▁성공적	-10.0849
▁안타깝네요	-10.0849
▁알았	-10.0852
▁일부	-10.0852
▁확실하	-10.0853
▁전세	-10.0855
▁집중하세요	-10.0857
▁괜찮다면	-10.086
가지	-10.086
하긴	-10.0864
▁반응	-10.0869
▁같음	-10.0869
▁연휴	-10.0872
▁익숙해지지	-10.0872
▁사귀면	-10.0874
▁달라져	-10.0875
▁이해하	-10.0875
▁행복할까	-10.0875
▁어색해	-10.0886
▁태어나	-10.0888
▁방식	-10.089
▁낳	-10.0891
▁찼	-10.0891
위치	-10.0893
▁내려놓	-10.09
▁성형	-10.0901
짐에	-10.0901
▁차례	-10.0902
했나	-10.0903
▁무기력	-10.0906
으니까	-10.0917
▁멀어지	-10.0922
취	-10.0926
▁듣기	-10.0931
▁갔는데	-10.0934
▁참았어	-10.0936
▁돌아가고	-10.0938
▁궁금할	-10.0943
▁빠졌	-10.0945
▁교	-10.0949
질러	-10.0951
▁대답	-10.0968
▁정답	-10.0972
▁언제까지	-10.0975
▁순간이었	-10.0984
▁식었	-10.0985
▁당신에게	-10.099
▁육아	-10.1005
▁힘든데	-10.1006
▁나갈	-10.1006
▁티내	-10.1008
▁아플	-10.1009
▁사랑받고	-10.1028
▁고기	-10.103
▁벽	-10.1031
▁크기	-10.1035
▁이름	-10.1041
▁뭐하냐	-10.1052
▁자신과	-10.1053
▁썸일	-10.1055
▁부탁	-10.1056
▁쓸데없	-10.1061
있을까	-10.1061
▁이해할	-10.1064
▁망가	-10.1065
▁끝났네	-10.1067
하려는	-10.1069
해야할까	-10.1075
리면	-10.1078
▁알아가	-10.1079
▁화가나	-10.108
▁전기	-10.1084
▁위험해	-10.1088
▁마음이라	-10.1092
▁그리운	-10.1097
▁밀어	-10.1108
▁사랑하기	-10.111
▁좋으	-10.1114
▁이쁜	-10.1116
▁달리	-10.1124
▁해주고	-10.1125
▁사수	-10.1131
▁예민해	-10.1135
▁높아	-10.1136
▁그만두	-10.1143
▁계기	-10.1148
들어	-10.1154
▁업	-10.1155
▁보이는	-10.1157
▁하루에	-10.1157
리지	-10.1158
▁기술이	-10.116
▁잘해야	-10.117
▁지하철에	-10.1187
▁가치관이	-10.1194
▁준비중	-10.1198
▁맞나	-10.1198
▁클	-10.1201
▁속은	-10.1212
▁당연한	-10.1215
▁받기	-10.1216
▁간사하	-10.1222
▁돌아올	-10.1227
▁바꿀까	-10.123
▁보내주	-10.1244
▁사랑했	-10.1248
정리를	-10.1259
월	-10.1261
▁들으면	-10.1262
▁반장	-10.1273
독	-10.1277
하셨어요	-10.1278
▁나네	-10.1282
▁위험	-10.1287
▁분들	-10.1296
▁인스타	-10.1297
▁이뻐	-10.1298
▁연락해보는	-10.1307
▁으	-10.1318
▁요리	-10.1322
▁맞지	-10.1324
카	-10.1335
보며	-10.1337
▁칭찬해주	-10.1339
연애	-10.1341
▁해보	-10.1351
▁좋아한다는	-10.1385
무	-10.1387
▁낫겠	-10.1387
으니	-10.1387
하며	-10.1389
▁있는거	-10.1391
▁사랑한다는	-10.1396
▁그립	-10.1396
해주는	-10.1404
났어	-10.142
▁이용해	-10.1422
▁야경이	-10.1428
▁물어보면	-10.1431
▁견디	-10.1433
▁다가오	-10.1435
▁아닌거	-10.145
▁만족	-10.1452
▁충전기	-10.1453
▁점이	-10.1455
▁다가왔	-10.1457
▁재밌다	-10.146
▁먹지	-10.1461
▁올까	-10.1461
▁실수한	-10.1463
▁이루어	-10.1472
망했어	-10.1473
▁연애하는	-10.1476
▁첫사랑이	-10.148
받았어	-10.1481
음이	-10.149
▁떨어	-10.1494
려주세요	-10.1505
▁사내	-10.1506
▁며	-10.1521
▁놀까	-10.1527
▁삭제하	-10.1536
▁바꿔야	-10.1537
곳	-10.1546
타	-10.1546
▁남아	-10.1551
없는	-10.1566
▁떠보	-10.1567
▁얻	-10.1575
스러워	-10.1577
▁당했	-10.1579
▁치	-10.1584
▁애정	-10.1596
올	-10.1606
보내는	-10.1613
▁처음이	-10.1618
▁맞아	-10.162
▁봐주	-10.1628
▁아껴	-10.1645
해보고	-10.1666
▁울적	-10.1694
▁걸까요	-10.1695
▁급	-10.1713
줘야	-10.1723
해져	-10.1724
▁들리	-10.1741
▁아닌가봐	-10.1741
우니까	-10.1755
드리	-10.177
▁정신없	-10.1777
으려면	-10.1788
▁힘드신가	-10.1793
백	-10.182
▁복잡하겠	-10.1835
▁아니네	-10.184
이니	-10.1845
느냐	-10.1855
▁스타일이	-10.1856
▁투자	-10.1856
버렸	-10.1908
복이	-10.1912
▁읽어보	-10.1914
지기	-10.192
▁무너	-10.1921
▁지냈	-10.1925
▁혼자인	-10.1931
▁함께할	-10.1943
▁바디	-10.1952
▁표시	-10.1962
▁들어왔	-10.1976
▁간단하	-10.1988
▁바지	-10.1993
▁두근거리겠	-10.2
3	-10.201
▁마셨	-10.2014
관계	-10.2019
▁이루	-10.202
▁축하해주	-10.2022
▁손해	-10.2031
▁결혼하	-10.2038
▁행동이	-10.2054
▁고고	-10.2056
▁풀렸	-10.2062
▁왔나	-10.2066
모습	-10.2066
▁동생이	-10.2074
어야	-10.2074
▁견디고	-10.2083
채	-10.2098
▁술마시	-10.2099
▁꿈같	-10.2102
왔네	-10.2115
찬	-10.2119
▁나아지	-10.2122
둔	-10.2124
▁그때	-10.2139
출	-10.214
▁중고	-10.2151
▁어장인	-10.2153
▁기울이	-10.2155
▁정확하	-10.216
목	-10.2162
푸	-10.2171
인거	-10.2178
왕	-10.219
깨	-10.2197
있음	-10.2211
▁사람일	-10.2228
한번	-10.2229
는걸까	-10.2239
설	-10.2244
슬	-10.2248
▁해주면	-10.2256
▁몰랐어	-10.2257
▁비슷한	-10.2271
▁바꿀	-10.2327
▁통	-10.2327
▁사랑하는지	-10.2334
망	-10.2338
▁군	-10.2339
머	-10.2344
려면	-10.2347
▁살다	-10.2351
셨나	-10.2367
밖	-10.2379
뿐이에요	-10.238
▁좋아했	-10.2381
셔야	-10.2399
▁공부할	-10.2402
▁한다는	-10.2408
놓지	-10.2415
한거	-10.2417
▁괜찮다	-10.2425
긴다	-10.2434
관	-10.2445
달이	-10.2448
있지	-10.2449
여자	-10.2471
▁마음에서	-10.2478
올까	-10.2482
같이	-10.2484
▁침대	-10.2488
이래	-10.2519
▁쓸데	-10.2523
▁웃는	-10.2539
▁음	-10.2545
▁바르	-10.2548
▁깎	-10.2561
▁연애하면	-10.2573
였을	-10.2581
▁받아들여야	-10.2588
▁미치	-10.2589
▁가려	-10.2596
▁선택할	-10.2601
▁매력이	-10.2605
▁닮	-10.2606
▁헤아	-10.2612
▁이기적이	-10.2617
▁탈퇴	-10.2623
▁힘든거	-10.2625
게임	-10.2636
▁된다	-10.264
치기	-10.264
▁사람들에	-10.2642
▁심심	-10.2669
▁때려	-10.2669
▁맘같	-10.2671
▁때문일	-10.2678
▁참다	-10.2705
▁보일	-10.2726
▁하다	-10.2728
▁개강	-10.2737
력이	-10.2746
담	-10.2746
▁유학	-10.2749
▁20	-10.2755
▁어디가	-10.2756
▁만나러	-10.2756
버렸어	-10.2756
▁낮	-10.2757
▁점심시간	-10.2764
▁끝인가	-10.2776
랬	-10.2777
련만	-10.2779
▁경험	-10.2781
▁흔	-10.2784
▁챙	-10.2785
친구와	-10.2785
탕	-10.2792
례	-10.2795
▁거기까지	-10.2795
▁태어났	-10.2796
▁발렌타인데이	-10.2797
▁기울여	-10.2798
▁어떨	-10.2799
▁사라질	-10.2799
▁부담스러운	-10.2802
▁녹	-10.2804
념	-10.2805
▁맨	-10.2806
▁아팠	-10.2808
▁셀프	-10.2808
...	-10.2808
▁가볍	-10.2808
▁긁었어	-10.2808
▁금수저	-10.2808
▁꾹꾹	-10.2808
▁놀이동산	-10.2808
▁당분간	-10.2808
▁랜선	-10.2808
▁머리카락	-10.2808
▁모쏠	-10.2808
▁빚	-10.2808
▁서툴러	-10.2808
▁섬유유연제	-10.2808
▁염탐하	-10.2808
▁유부남	-10.2808
▁지저분해	-10.2808
▁층간소음	-10.2808
▁컴퓨터	-10.2808
▁특징	-10.2808
▁한켠	-10.2808
▁흑역사	-10.2808
댈	-10.2808
딩	-10.2808
릅	-10.2808
쫌	-10.2808
찐	-10.2808
츠	-10.2808
툰	-10.2808
▁뒷담화	-10.2808
▁리폼	-10.2808
▁삐	-10.2808
▁설렜	-10.2808
▁씁쓸	-10.2808
▁왠	-10.2808
▁축의금	-10.2808
▁팀	-10.2808
▁프라이버시	-10.2808
힐	-10.2808
▁배터리	-10.2808
▁비하하지	-10.2809
▁호칭	-10.2809
▁컴터	-10.2809
▁몸무게	-10.2809
▁농담	-10.2809
▁갑작스럽	-10.2809
▁편의점	-10.2809
▁격려	-10.2809
▁와닿	-10.2809
▁맞춤법	-10.2809
▁명품	-10.2809
▁무의식	-10.2809
▁시골	-10.2809
▁배고프	-10.281
▁구속	-10.281
▁신경써	-10.281
▁감싸	-10.281
▁끓여	-10.281
▁연락두절	-10.281
▁화장품	-10.281
▁그리울	-10.281
▁개념	-10.281
▁늦잠	-10.281
▁무관심	-10.281
▁마주쳤	-10.281
▁유행	-10.281
▁서류에서	-10.2811
▁변덕스럽	-10.2811
▁드라이	-10.2811
▁등산	-10.2811
▁방문	-10.2811
▁기다림	-10.2812
▁원인이	-10.2812
▁찾아온	-10.2812
▁지루	-10.2812
▁졸업식	-10.2813
▁웃겨	-10.2814
▁회복	-10.2814
▁고마운	-10.2814
▁은행	-10.2815
▁간식	-10.2815
▁빨래	-10.2815
▁짜증날	-10.2816
▁떨쳐	-10.2817
▁이틀	-10.2817
▁마실까	-10.2818
▁차갑게	-10.2818
▁갚아	-10.2818
▁어리게	-10.2819
활용	-10.2821
▁후배	-10.2822
▁크시겠	-10.2822
▁서운해	-10.2823
▁통장	-10.2823
▁한숨만	-10.2823
▁적응해야	-10.2823
▁정신적	-10.2824
▁반갑	-10.2824
▁좋아해줬으면	-10.2825
▁질질	-10.2825
▁사탕	-10.2825
년만	-10.2825
▁치워	-10.2826
주째	-10.2826
▁못참고	-10.2827
▁귀여	-10.2828
▁끝낼	-10.283
▁군인	-10.2831
▁한국	-10.2831
플라	-10.2831
▁친해질	-10.2832
▁사생활	-10.2832
▁마음정리	-10.2832
▁마실	-10.2833
▁허전한	-10.2835
▁양말	-10.2835
▁다정한	-10.2835
들은	-10.2837
년연애	-10.2838
▁미치겠습니다	-10.2839
▁지낼	-10.2839
▁망상	-10.2841
▁먼	-10.2842
▁효	-10.2846
▁무너져	-10.2846
▁의미일까	-10.2846
▁수업	-10.2847
▁쌓인	-10.2848
▁사겨도	-10.285
▁포근	-10.2851
▁첫눈	-10.2851
▁잊으려고	-10.2854
▁미워하지	-10.2855
▁점심시간에	-10.2856
▁없는거	-10.2856
▁없으니까	-10.2858
▁좋았으면	-10.2859
▁필요했을	-10.2859
▁아마	-10.286
라서	-10.286
▁낼	-10.2861
▁힘들고	-10.2863
▁아니라는	-10.2865
▁어른	-10.2868
▁나갔어	-10.287
주지	-10.2873
▁걸린	-10.2877
▁자는	-10.2878
▁목적	-10.2878
▁다짐	-10.2882
▁지우고	-10.2885
▁고백할	-10.2886
▁지우	-10.2888
▁어색한	-10.2889
▁흘리	-10.2889
▁태	-10.2892
▁많은걸	-10.2892
▁연락했는데	-10.2894
▁시작하기	-10.2898
▁좋더라	-10.2899
▁면도	-10.2903
▁어울릴	-10.2905
▁밟	-10.2907
▁작아	-10.2908
▁한계	-10.2913
▁가스	-10.2915
▁주택	-10.2915
▁설명	-10.2916
▁다툼	-10.2916
▁축제	-10.2917
▁프로필	-10.2918
▁똑똑해	-10.292
▁지나면	-10.292
▁벗	-10.2922
쟁이	-10.2922
▁극복하	-10.2928
▁달려있	-10.2932
▁바늘	-10.2932
▁보자고	-10.2933
신이	-10.2935
▁슬프게	-10.2936
▁이별이란	-10.2937
▁맞는거	-10.2938
▁가능하면	-10.2942
▁맞아요	-10.2943
▁치매	-10.2944
▁아파트	-10.2947
▁보냈어	-10.2952
▁연애하는데	-10.2953
▁찌질한	-10.2953
▁팔아	-10.2954
았나봐요	-10.2963
▁짜	-10.2972
▁끄는	-10.2973
뽑기	-10.2974
▁심심해	-10.2977
▁견뎌내	-10.2982
려도	-10.2983
▁덕	-10.2985
▁있었는데	-10.2987
▁힘들었죠	-10.2988
▁보고싶네	-10.2989
▁얘	-10.2993
▁흘러가	-10.2993
▁그러게	-10.2995
▁키울	-10.2997
▁준비할	-10.301
▁갑작스러	-10.3017
▁할줄	-10.3024
봤	-10.3031
▁헤어지기	-10.3039
▁무덤덤해지	-10.3042
▁먹기	-10.3043
▁아무말	-10.3043
▁부담스러워할까	-10.3047
▁머릿속	-10.3052
▁읽씹	-10.3054
▁소모	-10.3056
▁나아	-10.306
▁케이스	-10.3061
00	-10.3063
▁기억해	-10.3066
▁연락할	-10.3069
▁달라질	-10.3071
▁당한	-10.3072
▁활	-10.3075
▁구분	-10.3089
▁아픔이	-10.3091
▁잘해주	-10.3097
▁여자에게	-10.3109
▁복잡	-10.311
▁현실적	-10.3113
▁말했어	-10.3117
▁망했	-10.3122
주고	-10.3138
▁맛있을	-10.3139
▁나타나	-10.314
▁빨	-10.3149
▁정확	-10.3151
기적	-10.3152
▁뒤에	-10.3153
▁퍼	-10.3158
▁창업	-10.3172
▁빵	-10.3178
▁검색	-10.3186
▁그걸	-10.3193
▁뻔했	-10.3194
▁다르지	-10.3194
▁의지해	-10.3206
▁정리해	-10.3213
코인	-10.3216
▁향기	-10.3216
뿐이	-10.3219
▁확인하는	-10.3226
▁연속	-10.3245
뿐	-10.3255
▁편하고	-10.3257
▁나지	-10.3257
▁필요한가봐	-10.326
▁질리	-10.3263
부를	-10.3264
▁못자	-10.3264
들어보세요	-10.3279
갈수록	-10.3279
▁해줄	-10.3286
▁흐르는	-10.3293
▁켜	-10.3295
▁가야겠	-10.3299
▁빌	-10.33
▁들으	-10.3303
▁답답하다	-10.3306
▁모를	-10.3306
▁버리는	-10.3308
▁고백할까	-10.3311
▁사귀자	-10.3312
▁났나봐	-10.3322
▁자다가	-10.3325
▁힘드시겠	-10.3329
봐야	-10.3343
▁생일이	-10.3357
▁해야할	-10.3364
▁연락오	-10.3375
▁말해보는	-10.3395
▁ᄒᄒ	-10.3395
없어	-10.3414
▁떡	-10.3419
버는	-10.3421
▁무너졌	-10.3422
▁이어주	-10.3438
▁안좋은	-10.3444
▁붙	-10.3446
▁많은가	-10.3447
▁믿으	-10.3448
▁만들었어	-10.3448
▁겨울	-10.3456
▁낭만적	-10.346
▁행	-10.3478
여자들이	-10.3478
▁카	-10.3481
▁짝사랑만	-10.3481
▁어떻게해	-10.349
▁결혼한	-10.3508
▁남길	-10.3508
▁결정했	-10.351
▁한순간	-10.3511
왔다	-10.3514
▁멀었	-10.3529
▁바보같	-10.3535
▁찬	-10.3537
▁결정이	-10.3537
좋아하는	-10.3539
▁그분에	-10.3547
내고	-10.3548
▁우리집	-10.3551
▁쓰면	-10.3556
이렇게	-10.3569
▁접어두	-10.3572
▁즐기면	-10.3583
▁연습해	-10.3588
을거예요	-10.3589
▁울적해	-10.3591
▁만들기	-10.3592
선이	-10.3595
▁늦는	-10.3603
▁바뀌어	-10.3603
각이	-10.3618
▁귀찮은	-10.3621
▁키우는	-10.3636
▁좋을지	-10.3636
▁놓으	-10.3652
▁되었네	-10.3655
▁성장하	-10.3656
▁미안하	-10.3663
▁있으신가	-10.3671
▁위험하	-10.3679
▁옆	-10.3683
▁어울	-10.3685
▁포기해야	-10.369
▁들어올	-10.3695
다른	-10.3695
석	-10.3703
줄게	-10.3707
▁아이돌이	-10.3722
▁지는	-10.3723
▁내일이	-10.3723
▁봤네	-10.3733
▁맞춰가	-10.3734
테니	-10.3745
우는	-10.3746
▁합	-10.3748
▁일정	-10.3755
▁덜어	-10.3762
지가	-10.3764
▁것만	-10.377
하는건	-10.3778
▁공부하면	-10.3791
▁너무나	-10.3791
▁아쉽	-10.3793
▁술먹	-10.3804
▁들을	-10.3808
▁고치고	-10.3812
파	-10.3812
▁예뻐지	-10.3818
▁내기	-10.3825
▁다되가	-10.3826
▁했을	-10.3829
먹	-10.3837
▁안주	-10.3842
아는데도	-10.3849
▁피곤하	-10.3851
▁마주	-10.3852
▁학교에	-10.3856
▁주말이네	-10.3905
데이트	-10.3909
▁갖자	-10.391
▁오려나	-10.392
▁안오	-10.3935
▁지났	-10.3937
▁안에	-10.3969
▁기억에	-10.3976
▁시작해보	-10.3978
▁도와	-10.3994
▁될지	-10.3999
▁응원	-10.4007
▁커지	-10.4009
▁후회없	-10.4013
▁괜찮지	-10.4017
▁일인	-10.4023
워서	-10.4024
▁잡는	-10.4026
▁안녕하세	-10.4035
▁닫	-10.4042
되지	-10.4048
▁여사친	-10.4059
▁모으	-10.4069
▁좋은거	-10.4079
라는게	-10.408
▁김	-10.4092
▁말로	-10.4101
참	-10.4121
▁알지	-10.4125
▁아껴주	-10.4129
였나	-10.4151
▁당당	-10.4156
▁불면증	-10.4157
▁건데	-10.4172
▁편안하	-10.4174
▁평가	-10.4176
어보고	-10.4176
▁해봐	-10.4181
▁아니지	-10.4184
▁없었	-10.4188
▁결혼해	-10.419
▁시간이었	-10.4195
▁기다려보	-10.4201
▁깔끔하	-10.4207
▁미안	-10.421
▁때문	-10.421
할지도	-10.4214
버	-10.4216
▁착각이	-10.4219
근	-10.4221
▁기다려야	-10.4228
발이	-10.4232
▁안하지	-10.4251
▁먹은	-10.4259
▁축하해	-10.4259
▁정상	-10.4262
심해	-10.4267
▁오지	-10.4271
▁빠	-10.4281
▁되겠	-10.4287
▁힘들까	-10.4295
오래	-10.4298
남한테	-10.43
▁아파하	-10.4306
▁재미있는	-10.4306
▁거짓말이	-10.433
▁적이	-10.4334
▁가능하다	-10.4336
▁끊는	-10.4341
▁변해	-10.4347
해줬	-10.435
그래	-10.436
▁대화하는	-10.4385
▁운명인가	-10.4386
▁배워보	-10.4388
해주지	-10.439
▁설레는	-10.4396
잔	-10.4408
넘	-10.4411
치는	-10.4415
적으	-10.4427
▁따듯	-10.4428
▁많아지	-10.443
할래	-10.4441
사람은	-10.4442
을때	-10.4458
색	-10.4467
▁헛헛	-10.447
▁지났어	-10.4477
▁못난	-10.449
▁되는거	-10.4494
▁소문이	-10.4497
▁이러는	-10.4498
▁했네	-10.4533
▁끼	-10.4534
5	-10.4539
▁은퇴	-10.4547
▁후회할까	-10.4549
▁학기	-10.4556
어머	-10.4556
향	-10.4562
들면	-10.4566
안녕	-10.4566
▁마지막이	-10.4568
으신가	-10.4573
▁반복	-10.4576
▁무리	-10.4578
공원	-10.4582
순	-10.459
▁이별하는	-10.4592
▁서운	-10.4597
▁욕해	-10.4597
구경	-10.4599
온다	-10.4601
ᄒᄒ	-10.4604
되길	-10.4609
▁속상	-10.4617
욕	-10.4617
▁얘기해	-10.4618
▁불편하겠	-10.4628
옷	-10.4632
같네	-10.4636
영상	-10.464
▁버리	-10.4645
해줘서	-10.4647
건강에	-10.4648
S	-10.465
햇	-10.4654
처리	-10.4662
쪄	-10.4666
뒀	-10.4666
선배	-10.4673
▁말한	-10.4679
이가	-10.4681
조건	-10.4682
오니까	-10.4689
▁힘드시	-10.469
렸	-10.4693
놔	-10.4693
탔	-10.4698
분들	-10.47
높이	-10.4715
뜨	-10.472
클	-10.4721
비가	-10.4723
▁그렇다	-10.4724
가봐	-10.4726
공	-10.4731
▁선물해	-10.474
▁모아야	-10.4745
▁복잡한가	-10.4751
하는지	-10.476
특	-10.4761
져요	-10.4766
되어	-10.4773
▁비교	-10.4778
▁부르	-10.4783
받으	-10.4786
▁기술	-10.4788
▁학생	-10.4791
▁보이네	-10.4798
었네	-10.4807
▁남자분들	-10.4814
▁재밌을	-10.4821
랑이	-10.4829
회	-10.4852
▁답답	-10.4854
▁반에	-10.4859
▁뭐하면	-10.487
▁고백해	-10.4884
인건가	-10.489
▁생각하기	-10.4894
다니는	-10.4895
▁왕따	-10.4905
▁단순	-10.4909
▁친구라	-10.491
▁결혼하고	-10.4914
▁차가	-10.4923
▁인연이었	-10.4923
▁기다	-10.4932
▁맞춰주	-10.4937
운을	-10.4949
▁자야	-10.4952
여행	-10.4971
▁트	-10.4972
▁흐르	-10.4985
▁살았	-10.4988
▁제안	-10.4997
▁듣는	-10.5008
▁키워	-10.5011
▁사람인	-10.5015
았으면	-10.5035
▁주기	-10.5056
▁나나	-10.5069
못했던	-10.5071
▁남는	-10.5105
들까	-10.5114
▁깊었	-10.5115
▁태어	-10.5119
▁하게	-10.5124
러워	-10.5134
▁중요해	-10.5149
▁공개	-10.516
▁뜨	-10.5178
▁카페에	-10.5181
롭	-10.5193
▁느껴보	-10.52
▁멋져	-10.5206
▁부탁드	-10.5208
▁않았을	-10.5212
하냐	-10.5215
▁두근거	-10.5228
▁정리했	-10.523
▁잘지내	-10.5239
직	-10.5239
룩	-10.5255
▁중국	-10.5266
▁아물	-10.5273
냥	-10.5278
닝	-10.528
▁참을	-10.5285
▁진행	-10.5287
꿔	-10.5296
텐	-10.5299
▁쳐다	-10.5299
압	-10.53
▁무뎌지	-10.5301
렵	-10.5301
류	-10.5303
▁쪼	-10.5305
▁변덕	-10.5305
▁미칠	-10.5305
▁막히	-10.5308
▁멈	-10.5308
힌	-10.5308
▁휘	-10.5308
▁광	-10.5308
눅	-10.5308
▁슈퍼	-10.5308
꼈	-10.5308
율	-10.5308
맷	-10.5308
▁몫	-10.5308
▁사춘기	-10.5308
▁수면양말	-10.5308
B	-10.5308
a	-10.5308
s	-10.5308
▁각질제거	-10.5308
▁객관적	-10.5308
▁겪	-10.5308
▁교양수업	-10.5308
▁굳	-10.5308
▁그린라이트	-10.5308
▁글쎄요	-10.5308
▁꼰대	-10.5308
▁꼼	-10.5308
▁뒷감당	-10.5308
▁레시피	-10.5308
▁맴	-10.5308
▁맺	-10.5308
▁멘	-10.5308
▁무한리필	-10.5308
▁버릇	-10.5308
▁베트남	-10.5308
▁선풍기	-10.5308
▁설득	-10.5308
▁소액결제	-10.5308
▁아울렛	-10.5308
▁애프터	-10.5308
▁원동력이	-10.5308
▁웹툰	-10.5308
▁유부녀	-10.5308
▁이모티콘	-10.5308
▁인터넷	-10.5308
▁입냄새	-10.5308
▁좌절	-10.5308
▁팍팍	-10.5308
▁하우스웨딩	-10.5308
▁훔쳐보	-10.5308
껄	-10.5308
니깐	-10.5308
덥	-10.5308
샌	-10.5308
앨	-10.5308
엠	-10.5308
줌	-10.5308
짚	-10.5308
째깍	-10.5308
쭤	-10.5308
팁	-10.5308
팬	-10.5308
펑	-10.5308
풋	-10.5308
▁곱	-10.5308
▁꽉	-10.5308
▁뒹굴	-10.5308
▁핫	-10.5308
놨	-10.5308
▁대기업	-10.5308
▁뚫	-10.5308
▁브랜드	-10.5308
▁비정상이	-10.5308
▁현타	-10.5308
▁침묵	-10.5308
▁케익	-10.5308
▁무언가	-10.5309
▁어리석	-10.5309
▁확률	-10.5309
▁뱃살	-10.5309
듭니다	-10.5309
▁떨어뜨려	-10.5309
▁비행기표	-10.5309
▁상종하지	-10.5309
▁손가락	-10.5309
▁빈자리	-10.5309
▁엄마아빠	-10.5309
▁뉴스	-10.5309
▁블록	-10.5309
▁골프	-10.5309
▁외출하	-10.5309
▁증명	-10.5309
▁메뉴얼	-10.5309
▁뛰어넘	-10.5309
▁알뜰폰	-10.5309
▁희생양	-10.5309
▁피부관리	-10.5309
▁미용실	-10.5309
▁실패	-10.5309
▁찢어지	-10.5309
▁식습관	-10.5309
▁베프	-10.5309
▁패션	-10.5309
▁뜨겁	-10.5309
▁월세	-10.5309
▁똥차	-10.5309
▁승진	-10.5309
▁고시원	-10.5309
▁감정기복	-10.5309
▁어렸을때	-10.5309
▁주름살	-10.5309
▁예능	-10.5309
▁열흘	-10.5309
▁자장가	-10.5309
▁발견	-10.531
▁건강습관이	-10.531
▁롱디	-10.531
▁당첨	-10.531
▁탈모	-10.531
▁제정신	-10.531
▁친척	-10.531
▁학벌	-10.531
▁태연	-10.531
▁작동	-10.531
▁바꿨어	-10.531
▁잡념	-10.531
▁많으시	-10.531
▁실행	-10.531
▁공유	-10.531
▁무모	-10.531
▁종지부	-10.531
▁출발	-10.531
▁대청소	-10.5311
▁바쁠	-10.5311
폭력	-10.5311
▁청결	-10.5311
▁리드	-10.5311
▁음료	-10.5311
▁알바생	-10.5311
▁직전	-10.5311
▁참석하는	-10.5311
▁예비	-10.5311
▁손편지	-10.5311
▁감출	-10.5312
▁이제서야	-10.5312
▁들이대	-10.5312
콜록	-10.5312
▁외부	-10.5312
▁접어야	-10.5313
▁환기	-10.5313
▁쌓여	-10.5313
▁도와드릴	-10.5313
▁변화시켜	-10.5313
▁초기화	-10.5314
▁어느정도	-10.5314
▁시도해	-10.5314
▁선택이었을	-10.5314
▁녹여	-10.5314
▁속박	-10.5314
▁다듬	-10.5314
▁비밀연애	-10.5315
▁차였는데	-10.5315
▁비정규직	-10.5315
▁최저	-10.5316
잔하네	-10.5316
▁아쉬운	-10.5316
▁연애세포	-10.5316
▁정해져	-10.5316
▁부담스러울	-10.5316
▁예전	-10.5316
갈까	-10.5317
▁나이테	-10.5317
▁지압	-10.5317
▁한번쯤	-10.5317
▁졸린	-10.5317
▁장갑	-10.5318
▁입학	-10.5318
▁구두	-10.5318
▁알아볼	-10.5318
▁주량	-10.5319
▁감동	-10.532
▁겁나	-10.5321
▁구워	-10.5321
▁허전할	-10.5321
▁망함	-10.5321
스트	-10.5322
▁부족해	-10.5322
▁변신	-10.5322
▁역할	-10.5323
▁허전함	-10.5324
▁지낸	-10.5325
▁사표	-10.5325
▁강제	-10.5325
▁떠날	-10.5325
▁무뎌질	-10.5325
▁심해지는	-10.5326
▁방금	-10.5326
▁난방	-10.5326
▁면도기	-10.5327
▁이것	-10.5327
▁몰려	-10.5328
▁실천	-10.5329
▁인지시켜	-10.5329
▁프로	-10.5329
▁아니었나	-10.5331
▁넘어	-10.5332
▁12	-10.5332
▁미화되기	-10.5333
▁끊겼어	-10.5333
▁착잡하	-10.5335
▁지각	-10.5335
▁떠나간	-10.5335
▁전여자친구	-10.5335
▁진리	-10.5336
▁숙제	-10.5336
▁미안하다	-10.5336
차곡	-10.5337
▁위로해줄	-10.5338
▁두근거려	-10.5339
▁보냈습니다	-10.5339
디오	-10.5339
▁시작할	-10.5339
▁습관처럼	-10.534
▁표현하기	-10.5341
▁오바	-10.5341
▁풀리	-10.5343
▁일방적	-10.5343
▁냉면	-10.5343
준비	-10.5344
▁옳은	-10.5345
▁고마	-10.5346
▁되려면	-10.5346
▁필기	-10.5347
추적	-10.5347
▁아부	-10.5348
▁단수	-10.535
▁아쉬움이	-10.535
개월차	-10.5351
▁싸운	-10.5351
▁돌아와	-10.5352
▁들어줄	-10.5353
▁익숙해져	-10.5354
▁보란	-10.5357
▁확실해	-10.5358
▁반가워요	-10.5359
초록	-10.536
▁상대적	-10.5362
▁이별준비	-10.5362
▁물질	-10.5362
▁친절한	-10.537
▁실수했나	-10.5371
▁탁	-10.5371
종료	-10.5372
▁따져	-10.5372
▁낮잠	-10.5375
▁끈을	-10.5378
▁좋아한대	-10.5379
▁무리하지	-10.538
▁일시적	-10.5383
▁여러명	-10.5386
▁깨달았	-10.5386
▁냉	-10.5387
▁아니겠지	-10.5392
▁늙어가	-10.5393
▁죽을거	-10.5394
▁달력	-10.5395
체인	-10.5396
▁도망가	-10.5398
▁가리	-10.5398
근데	-10.5402
▁결혼하기	-10.5402
▁월급날	-10.5403
▁실력	-10.5404
▁칼	-10.5404
▁개강이	-10.5404
▁지친	-10.5407
▁받으시	-10.5407
▁한약	-10.5412
▁터질	-10.5413
▁다칠	-10.5417
▁안받아	-10.5417
▁하다니	-10.5417
▁수능	-10.542
▁연상	-10.5421
▁막힌다	-10.5421
▁나빠	-10.5422
왔	-10.5422
▁농	-10.5422
▁많았나	-10.5424
▁메리	-10.5427
▁손톱이	-10.5427
▁쫄	-10.5433
▁윗	-10.5433
▁돌아서	-10.5437
▁응	-10.5437
사드리	-10.5442
▁예약	-10.5443
▁독서	-10.5444
▁영어	-10.5445
▁차인	-10.5446
▁다양	-10.5448
▁좋아지고	-10.545
▁웃음	-10.5452
▁아는거	-10.5452
▁술한잔	-10.5452
식하는	-10.5458
▁없는걸까	-10.5459
▁해봤는데	-10.5465
▁어이없	-10.5465
▁견디기	-10.5468
▁없는걸	-10.5469
주물	-10.547
▁표현하지	-10.5471
▁외국어	-10.5472
▁현금이	-10.5473
▁찾아봐요	-10.5475
해줬으면	-10.5477
▁싸울	-10.5483
▁중독	-10.5486
▁고백해야	-10.5487
▁누나	-10.549
▁나쁘	-10.5496
▁용서하	-10.5496
▁알아내	-10.5504
▁반복되	-10.5505
▁넘었는데	-10.5507
주일	-10.5509
▁공간	-10.5515
둬야	-10.5516
▁싸우고	-10.552
장이	-10.5526
▁세우	-10.5526
▁낭만이	-10.5527
▁입장	-10.5527
지마요	-10.553
▁운동화	-10.5537
두통	-10.5539
▁사이로	-10.5541
▁알겠어	-10.5541
렸으면	-10.5543
▁취직할	-10.5546
▁싶으면	-10.5546
▁해준	-10.5554
런지	-10.5557
▁뛰어	-10.5559
▁울고	-10.556
▁좋아졌어	-10.5564
▁타나	-10.5564
▁필수	-10.5566
▁배정	-10.5569
사람에게	-10.5572
▁붙이	-10.5574
▁닮아	-10.5575
▁운이	-10.5578
▁반년	-10.558
▁쌓였	-10.5583
▁남았나봐	-10.5587
▁따지	-10.5594
▁기침	-10.5595
▁부족한가	-10.5601
▁의자	-10.5602
▁예상	-10.5615
▁남자에게	-10.5622
▁걷다	-10.5623
▁센	-10.5627
▁액	-10.5627
▁세달	-10.5629
▁미팅	-10.5631
▁좋긴	-10.5631
▁우울하	-10.5633
자마	-10.5633
▁견	-10.5639
해야할지	-10.5641
▁이어가	-10.5659
▁감성적이	-10.5663
▁돌아오지	-10.5663
▁마시지	-10.5666
▁못하겠	-10.5667
▁동생한테	-10.5667
▁남이에요	-10.5669
▁사줘	-10.5669
▁끊으	-10.5674
▁애석하	-10.5676
▁이뤄지	-10.5676
▁허무하네	-10.568
▁단점	-10.568
▁피로	-10.568
▁있대	-10.5686
▁물어보고	-10.5688
했던거	-10.569
▁꾸준한	-10.5692
▁냄새나	-10.571
▁부려	-10.571
▁보내지	-10.5714
돌	-10.5725
▁잊지못	-10.5732
▁쓰일	-10.5736
▁결정하는	-10.5738
▁정성	-10.5738
▁하셔야	-10.574
▁여기까지였	-10.5741
▁수준	-10.5743
▁잘생겼어	-10.5743
이크	-10.5752
▁아깝	-10.5765
▁굴	-10.5769
▁배신	-10.5774
▁모른척	-10.5775
▁끊기	-10.5779
이럴까	-10.5782
▁가려고	-10.5782
▁하아	-10.579
▁좋은점	-10.5796
▁신기	-10.5796
▁겨울에	-10.5798
마음	-10.5802
▁특	-10.5806
져서	-10.5806
▁힘들지만	-10.5827
길게	-10.5831
▁걸리	-10.5838
▁방심	-10.5845
▁대하는	-10.5848
▁말보다	-10.585
▁않으니	-10.5853
▁고백한	-10.5854
하려	-10.5855
▁아프게	-10.5856
고치기	-10.586
꺼야	-10.5861
▁준비해	-10.5866
▁끊겼	-10.5871
▁가져가	-10.5873
이는	-10.5873
되시길	-10.5874
나가는	-10.5874
▁남아있	-10.5886
연이	-10.5894
▁사전	-10.5898
▁직	-10.5905
▁친구인데	-10.5907
▁하는거	-10.5913
▁글자	-10.5922
▁전과	-10.5927
▁좋고	-10.593
▁품	-10.5936
▁잘못한	-10.5942
▁넣어	-10.5953
개시	-10.5964
▁죽어	-10.5965
▁진도	-10.5973
▁잊어가는	-10.5975
버리	-10.6003
▁처리	-10.6004
▁병	-10.6005
▁하러	-10.6007
▁말해봐	-10.601
▁페	-10.6019
▁지식	-10.6021
▁의심해	-10.6033
▁뜨는	-10.6051
▁성덕이	-10.6055
▁이기	-10.6064
▁약간	-10.608
▁익숙해지	-10.609
▁안될	-10.61
▁뒤숭숭하	-10.6106
되니까	-10.6108
▁이상하	-10.6112
에도	-10.6113
▁영상	-10.6114
▁지적	-10.6124
▁붙잡아	-10.6134
▁순수하	-10.6135
식물	-10.6141
▁괜찮다가	-10.6146
▁짝	-10.6164
▁크리스마스에	-10.6188
▁화해	-10.62
▁뭐해	-10.6203
▁사귀다	-10.6204
▁결혼에	-10.6219
▁색	-10.6221
▁헛헛하	-10.6223
▁밥이	-10.6233
▁일기	-10.6243
겟	-10.6257
심이	-10.6262
▁질린	-10.6266
▁고독	-10.6267
겠네	-10.6269
오늘	-10.6273
정기	-10.6279
볼때	-10.6283
▁판	-10.6284
시다니	-10.6286
이었을	-10.6295
▁쓰게	-10.6298
▁학생이	-10.6303
갔네	-10.6321
이란게	-10.6352
▁여지	-10.6359
▁귀찮다	-10.6363
려는	-10.6373
안보여	-10.6398
사는	-10.6398
▁화나	-10.6407
▁죽겠	-10.6422
▁혼내	-10.6438
▁알아봐	-10.6445
▁인연인	-10.6447
▁꿨	-10.645
▁중이	-10.6452
▁싶다는	-10.6456
▁든든하	-10.6457
해주	-10.6462
▁모르겠다	-10.6463
▁찾아오네	-10.6463
▁기적	-10.6464
던데	-10.6464
▁나약	-10.647
▁나눠보는	-10.648
겼는데	-10.6488
▁써보	-10.6493
▁찾	-10.65
▁두근거리	-10.6508
▁마주치면	-10.6522
▁나니	-10.6524
▁도와줄	-10.6542
난다면	-10.6555
▁다치	-10.6556
▁똑	-10.6559
▁치맥이	-10.6585
이고	-10.6591
▁감당	-10.6597
▁이야기하고	-10.6598
했을까	-10.66
▁조급하	-10.6662
▁버려야	-10.6666
▁답답하	-10.6677
▁그런가	-10.668
▁도	-10.6686
가네	-10.6686
▁놓아줄	-10.6689
▁안정적	-10.6693
말걸	-10.6696
용해	-10.6699
어가네	-10.6702
▁문제인	-10.6715
▁부담되	-10.6723
▁초대하	-10.6749
▁생각하게	-10.6764
▁믿어보	-10.6768
▁거였	-10.6779
볼	-10.678
▁이겨야	-10.6802
▁우정	-10.681
▁보았	-10.6824
▁자르	-10.6825
▁필요하지	-10.6825
싶은데	-10.6844
문이	-10.6847
▁붙잡는	-10.6853
▁차단하는	-10.6855
▁걸리겠	-10.6866
당했	-10.6876
▁지르	-10.69
▁그사람이	-10.6902
▁메	-10.6912
▁수건	-10.6918
▁풀려	-10.6919
▁이래	-10.6924
페	-10.6927
▁별로인	-10.6928
족	-10.6946
▁짧아	-10.6949
줘서	-10.6949
▁깎아야	-10.695
▁싫은가봐	-10.697
막히는	-10.6996
▁복잡해	-10.7
참고	-10.7003
▁쌓	-10.7005
▁해보려	-10.7005
▁출근하	-10.7036
겠	-10.7057
▁불만	-10.7088
선물	-10.7096
▁어이	-10.7102
확	-10.7115
▁대단	-10.7122
▁상황에	-10.7131
▁필요해보	-10.7132
와요	-10.7135
▁건들	-10.7147
실에	-10.7171
됩니다	-10.7185
▁하는지	-10.719
▁아이돌	-10.7194
▁무엇인	-10.7201
▁상태인	-10.7204
톡	-10.7221
▁예쁘다	-10.7224
▁후련하네	-10.7228
▁찾아가는	-10.7236
▁끝인거	-10.7239
▁당당해	-10.7243
▁왔나봐	-10.7245
▁든든	-10.7267
▁해야하나	-10.7275
▁이성이	-10.729
을까요	-10.7292
▁척하는	-10.7297
▁감성	-10.731
▁친해	-10.7312
안한다	-10.7313
이상	-10.7313
▁이별중	-10.7313
▁티나나	-10.732
다리	-10.7324
너	-10.7329
머리	-10.7356
▁돌아보	-10.7357
▁민	-10.7362
▁사랑이라는	-10.7365
▁버려야겠	-10.7387
▁해결해	-10.7396
▁중요하니까	-10.7404
▁오락가락	-10.7406
▁많겠지	-10.7408
받으면서	-10.7412
▁달에	-10.7424
▁배려해	-10.7426
▁남사친	-10.7426
▁취직하	-10.7444
▁물이	-10.7451
하기로	-10.7452
되었는데	-10.7452
유	-10.7462
▁되어가	-10.7468
▁원해	-10.7475
하자	-10.7482
▁잘하	-10.7498
절	-10.7501
▁매력있	-10.7507
▁울었	-10.7514
▁믿었	-10.752
간을	-10.7532
맘	-10.7533
▁헤어짐에	-10.7534
같은데	-10.7549
▁따라가	-10.7553
▁멀	-10.7562
1	-10.7577
▁진지	-10.7582
지마	-10.761
▁사람이니까	-10.7611
▁요구	-10.7612
때문에	-10.7618
표	-10.7649
▁남자의	-10.7651
▁안됐	-10.7653
생각이	-10.7662
▁비오	-10.7664
노래	-10.7665
▁끝내는	-10.768
인다	-10.7688
꿈	-10.7696
▁만나기	-10.77
▁짝사랑인	-10.7713
▁쿨	-10.7714
시켜	-10.7731
책	-10.7738
침	-10.7741
▁연인이	-10.7743
▁상처주	-10.7751
▁중독인	-10.7765
스타일	-10.7767
이야기	-10.777
▁포기하	-10.7772
름이	-10.7778
품	-10.7805
그만	-10.7812
▁일이라	-10.7815
오게	-10.7815
폭	-10.7817
야겠어	-10.7823
보니	-10.7847
육	-10.7852
절한	-10.7852
사진	-10.7854
▁살아가는	-10.7859
▁기대하	-10.7862
상담	-10.7869
그리고	-10.7876
▁않기	-10.7878
빛	-10.788
좋아	-10.7888
속에	-10.7891
영	-10.7891
만남	-10.7898
됐	-10.7901
꿀	-10.7903
완	-10.7906
▁연속이	-10.7909
었다	-10.7911
▁예민	-10.7916
투	-10.7922
▁사랑이었으	-10.7933
호	-10.7939
▁불안하	-10.794
쌈	-10.794
▁없어졌	-10.7944
잼	-10.7945
따로	-10.7952
문득	-10.7955
벌	-10.7956
간의	-10.7958
볶	-10.796
▁헤어졌다	-10.7965
못	-10.7967
동물	-10.7969
▁대수	-10.7971
롱	-10.7978
싸움	-10.7983
팩	-10.7987
커플	-10.7989
있나	-10.799
▁그런지	-10.7994
뒤	-10.7995
평가	-10.7996
▁준비하느	-10.8
치료	-10.8
거지	-10.8001
빈	-10.8011
▁티나	-10.8011
빵	-10.8014
널	-10.8015
팔	-10.8019
맞나	-10.8019
커	-10.802
▁풀어야	-10.8022
▁모른척하	-10.8027
포	-10.8039
▁향이	-10.804
빨	-10.804
▁물가	-10.8047
까운	-10.8052
▁치열	-10.8057
편지	-10.8057
시려	-10.8061
▁사라	-10.8067
▁무덤덤해	-10.8076
▁나는데	-10.8078
였나봐	-10.8079
계절	-10.8083
얘	-10.8089
▁의	-10.81
▁미안해하	-10.8114
▁나야	-10.8114
노	-10.8116
▁풀어보	-10.8116
▁걸어보	-10.8121
쳤	-10.8126
었나	-10.8131
▁야근이	-10.8136
프	-10.8146
▁공부해	-10.8149
일만	-10.8151
필	-10.8154
주실	-10.8161
▁아니었을	-10.8167
였던	-10.8171
▁안되나	-10.8172
▁해외여행	-10.8175
▁만족해	-10.8177
수건	-10.818
성적이	-10.8199
▁내면	-10.821
▁좋으니	-10.821
▁안좋	-10.821
되었길	-10.8214
▁말자	-10.8228
▁떠올	-10.823
▁그리	-10.8239
나의	-10.8246
▁관계에	-10.8262
▁결심이	-10.8264
라더니	-10.8264
▁털	-10.8275
▁골	-10.8278
▁머릿속에	-10.8282
탈이	-10.8298
▁만한	-10.8303
▁유지	-10.8314
안할	-10.8319
▁입으	-10.8326
렀어	-10.8333
▁터지	-10.8333
▁잘하니	-10.8335
▁뽑	-10.8341
▁접는	-10.8347
▁올려달	-10.8347
거니	-10.8354
▁사람이다	-10.8357
▁너무너무	-10.8372
▁올리	-10.8376
러운	-10.8392
▁채	-10.8402
▁오셨	-10.8419
끄러워	-10.8423
▁됐나	-10.8441
▁기도	-10.8459
▁멀어진	-10.8471
▁카톡할	-10.848
▁즐	-10.848
▁뛰	-10.8483
들지	-10.8497
싹	-10.85
잘	-10.8512
▁움직	-10.8516
▁사먹	-10.8528
▁100	-10.8549
한대	-10.8549
▁무색하	-10.8553
처	-10.8565
촉	-10.8567
▁상메	-10.8572
▁되려	-10.8573
정도	-10.8578
하는걸	-10.8582
지우	-10.8583
▁되는건	-10.8584
▁헤	-10.8584
곡	-10.8602
꾼	-10.8602
시키는	-10.8603
▁사람하고	-10.8607
▁벗어	-10.8612
▁흔들	-10.8612
감기	-10.8613
▁똑똑	-10.8613
납	-10.862
▁한숨	-10.8625
닥	-10.8626
▁지켜보는	-10.8629
▁기억해주	-10.8632
▁감으	-10.8633
▁바랄	-10.8636
즘	-10.8636
▁탓	-10.8637
춰	-10.8638
혔	-10.8639
범	-10.8641
둥	-10.8641
봉	-10.8642
낌	-10.8642
뱃	-10.8642
-	-10.8642
▁헹	-10.8642
▁홧	-10.8642
▁간섭	-10.8642
▁간질간질	-10.8642
▁견과류	-10.8642
▁공휴일에	-10.8642
▁기쁨	-10.8642
▁깍	-10.8642
▁깰	-10.8642
▁꿰	-10.8642
▁뇌	-10.8642
▁눈꺼풀	-10.8642
▁눕	-10.8642
▁대리효도	-10.8642
▁드레스	-10.8642
▁떴	-10.8642
▁로맨스	-10.8642
▁매몰	-10.8642
▁묘	-10.8642
▁밑바닥	-10.8642
▁비혼주의	-10.8642
▁뻐근	-10.8642
▁설렐	-10.8642
▁쇼핑몰	-10.8642
▁숫자	-10.8642
▁시간낭비인	-10.8642
▁심쿵	-10.8642
▁씁니다	-10.8642
▁아날로그	-10.8642
▁앱	-10.8642
▁얼떨떨	-10.8642
▁얽	-10.8642
▁예측	-10.8642
▁캬	-10.8642
▁턱	-10.8642
▁텀	-10.8642
▁토닥토닥	-10.8642
▁하객	-10.8642
▁헥헥	-10.8642
▁현관문	-10.8642
▁현명	-10.8642
▁호르몬	-10.8642
▁혼인신고	-10.8642
▁휴유증	-10.8642
▁흐지부지	-10.8642
▁히스테리	-10.8642
겐	-10.8642
넋	-10.8642
닷	-10.8642
돕	-10.8642
됬네	-10.8642
땜	-10.8642
띠	-10.8642
렴	-10.8642
륵	-10.8642
벤	-10.8642
샜	-10.8642
송	-10.8642
엉엉	-10.8642
옵	-10.8642
젤	-10.8642
짼데	-10.8642
쿠	-10.8642
▁어딘가	-10.8642
▁헐	-10.8642
왓	-10.8642
▁오지랖	-10.8642
▁의존	-10.8642
▁잘생겨	-10.8642
▁창피해	-10.8642
▁피시방	-10.8642
▁홈	-10.8642
▁주인공	-10.8642
▁표출	-10.8642
▁북	-10.8642
▁소름돋	-10.8642
▁근교	-10.8642
▁식단조절	-10.8642
▁예쁠	-10.8642
▁주워담	-10.8642
▁씨씨	-10.8642
▁투잡	-10.8642
▁느꼈	-10.8642
▁세탁	-10.8642
▁우습	-10.8642
▁자극이	-10.8642
▁도저히	-10.8642
▁배불러	-10.8642
▁베란다	-10.8642
▁격식	-10.8642
▁욜로	-10.8642
▁공황	-10.8642
▁스릴있	-10.8642
▁창문	-10.8642
그램	-10.8642
▁체력	-10.8642
▁바람둥이	-10.8642
▁관찰	-10.8642
▁난감하	-10.8642
▁자유여행이	-10.8642
▁뜨끈	-10.8642
▁뒤돌아	-10.8642
블루	-10.8642
▁깜빡거려	-10.8642
▁평범	-10.8642
▁노잼	-10.8642
▁낮술	-10.8643
▁충실하	-10.8643
▁카공	-10.8643
▁빼앗	-10.8643
▁흐려지	-10.8643
▁억울	-10.8643
▁탄다	-10.8643
▁서핑	-10.8643
▁환경	-10.8643
▁구썸남	-10.8643
▁병행	-10.8643
▁빌릴까	-10.8643
▁재설계	-10.8643
챙겼	-10.8643
▁스노	-10.8643
▁색다른	-10.8643
▁찬물	-10.8643
▁비오는날	-10.8643
▁위축	-10.8643
▁안타까워	-10.8643
▁투성이	-10.8643
▁혼란스럽	-10.8643
▁갈등	-10.8643
▁자책	-10.8643
베리	-10.8643
울컥	-10.8643
▁구박하	-10.8643
▁정열적	-10.8644
▁힘드셨	-10.8644
▁나빴네	-10.8644
▁예랑이	-10.8644
▁불순	-10.8644
▁도와준	-10.8644
▁계획적이	-10.8644
▁벗겨	-10.8644
▁찬성	-10.8644
▁길거리에	-10.8644
▁환심	-10.8644
▁힘이드네	-10.8644
▁엮여	-10.8644
▁딴짓	-10.8645
▁구남친	-10.8645
▁직후	-10.8645
▁제습기	-10.8645
▁오랜연애	-10.8645
▁태그	-10.8645
▁보여드리	-10.8645
▁가벼워질	-10.8645
▁체질	-10.8645
용품	-10.8645
▁혼밥	-10.8645
▁좋았을텐데	-10.8645
▁백수	-10.8645
았더니	-10.8646
▁갑작스러웠	-10.8646
▁되돌아보	-10.8646
▁유명	-10.8646
▁공복이	-10.8646
▁영화보러	-10.8646
▁무리일까	-10.8646
▁미끄러질	-10.8647
▁스쳐	-10.8647
▁사로잡	-10.8647
▁옥상	-10.8647
▁두렵	-10.8647
▁곤두	-10.8647
▁쪼금	-10.8647
▁내딛	-10.8647
▁누워	-10.8647
▁잊혀진	-10.8648
▁쉬었다	-10.8648
▁숨막히	-10.8648
▁계약	-10.8648
▁반영	-10.8648
▁감수성	-10.8648
잔치	-10.8648
▁설마	-10.8648
▁스케	-10.8648
▁벌레	-10.8649
키기	-10.8649
▁혼란스	-10.8649
▁치마	-10.8649
▁이끌어	-10.865
▁부족했	-10.865
▁속아주	-10.865
▁식혀	-10.865
▁유료	-10.865
▁분양	-10.865
▁경제	-10.8651
▁구매	-10.8651
▁천국	-10.8651
▁정신병	-10.8651
▁저편	-10.8652
▁올랐어	-10.8652
▁환장	-10.8652
▁느낀다면	-10.8652
▁아까운	-10.8652
▁나쁜놈	-10.8653
▁바나나	-10.8653
▁배워가는	-10.8653
▁숙취	-10.8653
▁생일선물	-10.8654
▁대학원	-10.8654
▁취소	-10.8654
▁줄일	-10.8654
설계	-10.8655
▁사회	-10.8655
▁집안	-10.8655
▁정리되길	-10.8655
▁사과해야	-10.8655
▁탈출구	-10.8656
▁11	-10.8656
▁귀여운	-10.8657
▁술자리	-10.8657
▁공통점	-10.8657
▁바닥	-10.8657
▁심난	-10.8657
▁편안해질	-10.8658
▁바람피	-10.8658
님들	-10.8658
▁요청	-10.8659
▁부팅	-10.8659
▁사회에서	-10.866
▁꿈꾸	-10.866
▁양치	-10.8661
▁퇴근길	-10.8663
▁추스리	-10.8664
▁친군	-10.8666
▁편린	-10.8666
▁단단해지	-10.8666
▁배워볼까	-10.8666
▁그쪽	-10.8666
▁자장면이	-10.8667
▁관심있	-10.8667
▁보고파	-10.8668
방비	-10.8668
▁거둬	-10.8668
▁다쳤	-10.8669
▁식사	-10.8669
▁고백했다	-10.8669
▁있었는지	-10.8669
주인	-10.8669
▁한달반	-10.8671
빛으로	-10.8672
▁서울	-10.8673
▁남녀	-10.8673
▁들텐데	-10.8674
▁신기하	-10.8674
▁매정	-10.8674
탈까	-10.8674
허허	-10.8675
▁주차장	-10.8676
▁한눈	-10.8677
▁배려해야	-10.8677
▁퇴근길에	-10.8678
▁전학가	-10.8678
▁권리	-10.8678
▁미끄러	-10.8679
▁재회했는데	-10.8679
▁해외	-10.868
▁의심하지	-10.8681
▁매달려	-10.8681
▁속상할거	-10.8682
▁떨리겠어요	-10.8685
▁장난인지	-10.8686
▁밀려오	-10.8686
버리네	-10.8687
▁불안한	-10.8688
▁보약	-10.8688
▁버렸다	-10.8689
식을	-10.869
▁난방비	-10.869
▁행복이	-10.8692
▁잘살고	-10.8692
▁미운	-10.8692
▁떠나보내	-10.8692
▁모처럼	-10.8693
▁잊자	-10.8695
▁끌지	-10.8695
▁없어졌으면	-10.8697
▁엇갈리	-10.8699
▁판단력	-10.8699
▁쟁취하는	-10.87
▁세월이	-10.8701
▁심남	-10.8701
▁모여	-10.8701
▁생생한	-10.8702
▁약점	-10.8702
▁어쩔수없	-10.8704
▁커플여행	-10.8705
▁물건들	-10.8707
▁취직이나	-10.871
▁않았다면	-10.8711
▁한달만에	-10.8711
▁졸라	-10.8712
▁허기	-10.8714
▁잘자요	-10.8714
▁이번달	-10.8715
▁살았는데	-10.8715
▁사랑하나	-10.8716
▁오랜만	-10.8717
▁예쁜데	-10.8718
간당	-10.8719
▁누락됐	-10.8719
▁누구냐	-10.872
▁특히	-10.8722
▁끊어야	-10.8725
▁멍청한	-10.8725
▁아깝다	-10.8727
▁고집	-10.8729
▁모르겠지만	-10.8729
▁뿌려	-10.873
▁출근길	-10.873
▁데려다주려	-10.8733
▁신경쓰인	-10.8736
▁즐거워	-10.8736
▁정신과	-10.8738
▁발라	-10.8738
▁말하면	-10.8738
이브	-10.8739
▁정리하려고	-10.874
▁실수하	-10.8742
▁한달째	-10.8744
▁공기	-10.8744
▁마시기	-10.8745
▁때인	-10.8745
▁씹어	-10.8745
▁말조심	-10.8748
▁역시나	-10.8748
▁타인	-10.8749
▁계신	-10.875
▁작아지	-10.8754
▁보인	-10.8755
▁성숙해지	-10.8758
▁어색해졌어	-10.8759
▁필요한가요	-10.876
▁문화	-10.8761
▁느껴질	-10.8762
▁알려면	-10.8762
오르네	-10.8763
▁비와	-10.8765
▁다되어가네	-10.8767
▁무뎌지는	-10.8767
▁가득	-10.8769
▁수학여행가	-10.8769
▁무섭네	-10.8771
▁비참한	-10.8773
▁채우	-10.8774
▁반했	-10.878
▁지날	-10.8781
▁사무	-10.8782
▁불가능	-10.8788
▁둔한	-10.8788
▁막막하	-10.8791
▁연하	-10.8792
▁아프지만	-10.8793
▁일상으로	-10.8795
▁걸었어	-10.8796
▁되돌	-10.8797
▁이러고	-10.8799
▁결혼준비	-10.88
▁괜찮습니다	-10.8801
▁속시원해	-10.8803
잡는	-10.8803
▁심하네	-10.8806
▁궁금해하지	-10.8809
▁가보	-10.8809
▁하트	-10.8812
▁흠	-10.8817
▁떼	-10.8817
▁쭉	-10.8817
▁동거하다	-10.8821
▁깜빡	-10.8822
▁괜찮은거	-10.8823
▁하셔	-10.8824
마시며	-10.8824
▁친구로서	-10.8824
▁사랑이야기	-10.8826
▁꾸미	-10.8829
▁총회	-10.8829
▁불쑥	-10.883
▁열까지	-10.883
▁김치	-10.883
▁날짜	-10.8833
▁무거	-10.8833
▁효도	-10.8837
▁복전	-10.8837
▁받으셨	-10.884
▁예고	-10.8845
▁보듬어주	-10.8847
▁집착하지	-10.8847
▁다가가야	-10.8848
▁믿는	-10.8849
▁아니니	-10.885
▁약해지	-10.886
▁깔끔한	-10.8862
▁예정	-10.8864
올려봐	-10.887
▁지났는데	-10.8872
▁죽겠다	-10.8873
▁증상이	-10.8873
▁운명적	-10.8873
▁악	-10.8876
▁비용	-10.8876
▁보셨나	-10.8878
▁동물이	-10.8879
▁여자사람	-10.8881
▁깨진	-10.8882
▁공부방법	-10.8884
▁시간인가	-10.8885
▁둘다	-10.8888
와야	-10.8888
침해	-10.8892
▁흘렸	-10.89
▁호구	-10.8906
▁날려	-10.8907
▁지옥같	-10.8908
▁분에게	-10.8909
▁벌려	-10.8914
▁없다는	-10.8915
▁입을까	-10.8917
지는것	-10.8919
▁없고	-10.8919
▁꼼꼼한	-10.8921
▁잃을	-10.8921
▁돌아오는	-10.8923
로그	-10.8924
▁비참해	-10.8927
▁묻어두는	-10.8927
▁사귀는데	-10.8928
▁친구사이	-10.8928
▁소개받	-10.8929
연애였는데	-10.8931
할까요	-10.8932
▁취향이	-10.8933
▁나온대	-10.8939
▁춥고	-10.8939
▁마라	-10.8947
▁이길	-10.895
▁생각일까	-10.8954
▁고마워요	-10.8954
▁아려	-10.8962
▁귀찮게	-10.8963
▁나갈까	-10.8974
▁충	-10.8974
▁직구	-10.8977
▁차단하	-10.8979
▁없대	-10.8982
▁접은	-10.8984
▁아련하	-10.8984
▁농구하	-10.8984
▁남자와	-10.8989
▁되었나	-10.899
▁답답해서	-10.8991
감한	-10.9009
▁부러	-10.9012
▁회	-10.9013
▁아련	-10.9013
▁포기하지	-10.9019
▁너와	-10.902
▁솔	-10.9023
▁끝냈	-10.9027
▁딸까	-10.9031
▁빌리	-10.9032
▁거부	-10.9034
▁찾은	-10.9038
▁탈출	-10.9043
▁공개해	-10.9044
이지	-10.9044
순수한	-10.9055
▁치우	-10.9056
▁안갈	-10.9074
▁틈	-10.9076
▁적당해	-10.9077
▁계절	-10.908
▁썸타다	-10.9082
▁버림	-10.9082
▁처음이라	-10.9086
▁추가	-10.9087
▁날들	-10.9087
▁쏟아	-10.9089
▁연애인	-10.9091
▁잊으려	-10.9102
▁따르	-10.9105
▁쪽	-10.9105
▁나타났	-10.9106
▁마주하	-10.911
▁나들이	-10.9113
▁찾아야	-10.9113
▁혼나	-10.9115
인줄	-10.9122
▁가입	-10.9123
나보네	-10.9125
▁저음이	-10.913
▁무서	-10.9135
기사	-10.9136
▁비우	-10.9136
▁만져	-10.9138
▁청춘이	-10.9138
차이	-10.9148
▁전까지	-10.9154
▁남았어	-10.9161
▁펴	-10.9163
하려면	-10.9164
▁개인적	-10.9174
▁알게되면	-10.9178
▁생각하면서	-10.9179
▁오해하	-10.9184
▁년	-10.9187
▁이야기할	-10.9187
▁그러지	-10.9188
▁불금이	-10.9189
▁돌아오기	-10.9191
▁무너지	-10.9192
▁나이들	-10.9198
▁놓는	-10.9199
▁편하대	-10.9202
▁갠톡	-10.9203
▁앞이	-10.9204
▁침	-10.9206
▁먹나	-10.9206
▁싫어할까	-10.921
▁먹자	-10.921
▁받아들여지	-10.9217
▁끝인가봐	-10.9217
▁지워지	-10.9217
픈	-10.9221
▁것일까	-10.9224
▁할게	-10.9229
▁상처받는	-10.9243
▁깨질	-10.9245
▁척하	-10.9245
▁백업해	-10.9246
상일	-10.9246
▁지금이	-10.9252
▁하려면	-10.9257
▁휴학	-10.9258
▁정확한	-10.9259
▁짰	-10.9259
▁언제가	-10.926
▁치열해	-10.9263
▁소식에	-10.9277
길래	-10.9282
▁말해야	-10.9288
▁야	-10.929
▁연락하기	-10.9292
▁태도에	-10.9293
▁변해가는	-10.9298
해본	-10.9299
들어서	-10.9302
▁할인	-10.9305
▁착하	-10.9305
▁헤어져야하는	-10.9306
▁웃기	-10.9312
▁빈	-10.9315
▁쓸쓸하	-10.9315
▁이대로	-10.9327
▁0	-10.9327
▁마음가는	-10.9327
하셔야	-10.9333
▁뜻밖	-10.934
▁표현에	-10.9341
▁팩	-10.9342
했었는데	-10.9344
▁부족	-10.9345
▁사람이었어	-10.9346
▁이해해요	-10.9346
생각	-10.935
▁할까요	-10.9355
▁애인이	-10.9356
▁중독인가	-10.9358
▁짝사랑에서	-10.9363
오지마	-10.9367
시간에	-10.9368
▁욕하는	-10.937
▁볶	-10.9373
▁잊어버리는	-10.938
되어가네	-10.9381
▁아파서	-10.9383
▁머	-10.9384
▁신고	-10.9386
▁잼	-10.9389
▁몰아	-10.9392
▁대단해	-10.9392
▁골랐	-10.9393
▁지나고	-10.9394
기한	-10.9403
주려고	-10.9404
겼어	-10.941
▁일과	-10.942
▁빛	-10.9421
▁생각난다	-10.9427
▁적극적이	-10.9432
일지	-10.9434
안됩니다	-10.9434
▁비만	-10.9435
▁허락하	-10.9438
▁사귄지	-10.944
▁저주	-10.9441
▁머리로	-10.9442
▁할말	-10.9444
▁보는데	-10.9451
▁해봤어	-10.946
이냐	-10.946
▁버려야지	-10.9467
▁썼다	-10.9468
▁않으셨	-10.9469
▁데서	-10.9476
▁끝이났	-10.9477
▁마무리하	-10.9501
▁내려놓기	-10.9512
▁다른데	-10.952
▁위험할	-10.9524
▁너무하네	-10.9525
▁말라	-10.9532
▁소개해	-10.9547
▁털어	-10.9548
고파	-10.9549
다니기	-10.9549
▁자다	-10.9561
▁후련해	-10.957
▁챙겨줘	-10.9576
▁가시	-10.958
올려	-10.9581
▁쓰리	-10.9585
▁타면	-10.9586
▁알아버렸	-10.9592
▁미루	-10.9594
페이	-10.9599
▁가슴은	-10.96
▁낙이	-10.9606
▁생각했	-10.9607
▁사주	-10.961
▁쪄	-10.961
▁뒀	-10.961
▁고민이네요	-10.962
▁자라	-10.9622
▁말만	-10.9624
▁익숙함이	-10.9626
▁동기	-10.9637
▁로	-10.9639
▁낫지	-10.9655
▁찾으	-10.9658
▁숨기	-10.966
▁너랑	-10.9666
소음	-10.9671
년하고	-10.97
▁에이	-10.9706
민	-10.9709
▁대리	-10.9732
▁시급	-10.9739
▁부여하	-10.974
▁멈춰	-10.9741
▁줘야	-10.9741
▁나가지	-10.9746
▁경험해	-10.9746
네ᅮ	-10.9755
▁저기	-10.9765
▁지속해	-10.9772
▁집앞	-10.9788
▁껴	-10.9805
▁출	-10.9811
▁욕을	-10.9814
▁흐르면	-10.9817
▁이별했	-10.9824
▁떨면	-10.984
▁공부한	-10.9841
▁상관이	-10.9855
▁반복하	-10.9869
▁어떻해	-10.9872
▁산다	-10.9885
▁바람이	-10.9885
▁얘기하	-10.9886
▁병이	-10.9914
▁해줬으면	-10.9917
▁붙는	-10.9922
▁좋대	-10.9924
▁기다리게	-10.9928
▁틀어	-10.9932
▁작	-10.9932
준비하는방법	-10.9943
었나봐	-10.9955
▁달라졌	-10.9959
▁나름	-10.9959
▁그에게	-10.9964
▁힘들어져	-10.9965
▁이혼이	-10.9983
▁표현하	-10.9986
▁넘은	-10.9986
납니다	-10.9991
졌는데	-10.9994
▁솔직해	-10.9998
▁무지	-11.0006
재인가	-11.0012
▁잊지말	-11.0013
▁기네	-11.0016
▁만들까	-11.0032
▁역	-11.0036
▁오락가락하	-11.005
▁놀러갈	-11.0053
▁급해	-11.0064
▁죽었	-11.0078
▁절약해	-11.008
학원	-11.0084
▁사겨	-11.0092
▁갔는	-11.0101
는건가	-11.0106
화가	-11.0106
▁자리에	-11.011
되어있는	-11.0114
▁제자리걸음	-11.0118
었지만	-11.0124
▁의지하	-11.0154
▁철벽이	-11.0154
▁보기만	-11.0161
▁안가	-11.0162
▁잘되고	-11.0167
마트	-11.0183
▁질문이	-11.0186
▁잔인하	-11.0203
▁일반	-11.0213
타는	-11.0217
▁났	-11.0219
때리는	-11.0227
▁찾아왔	-11.023
어진다	-11.0249
▁장기	-11.0253
▁원하	-11.026
▁받는다는	-11.026
린대	-11.0261
▁질려하	-11.0275
▁일하	-11.0276
▁서점에	-11.0278
▁실망하	-11.0281
▁극	-11.0292
기에	-11.0293
▁두려운	-11.0298
▁처럼	-11.0311
▁모임에	-11.0334
▁간단	-11.0335
망이	-11.0336
신청	-11.034
▁사랑합니다	-11.0343
▁만나야	-11.0346
▁확인하	-11.0358
했다면	-11.0358
▁공허하	-11.0379
다는데	-11.0385
시나	-11.0401
▁자신다	-11.0419
▁멍청	-11.0423
▁결국은	-11.0431
이에	-11.0434
인과	-11.0459
가지만	-11.048
▁거지같	-11.0486
▁맞이	-11.0486
▁알았다	-11.0496
▁받아줄	-11.0512
▁도전하	-11.0516
감이	-11.0522
뻔	-11.0522
시는	-11.0546
▁기다리다	-11.0549
여자친구	-11.0568
▁힘들어하	-11.0576
받아	-11.0577
달렸나봐	-11.0605
▁즐겨보	-11.062
▁보였	-11.0629
▁헬스장	-11.0632
▁저만	-11.0635
▁연애중	-11.0639
붙	-11.064
집에	-11.0642
여친이	-11.0647
일이네	-11.0648
장소에	-11.0662
▁열어	-11.0666
▁추억들	-11.0677
▁뜻하	-11.0681
▁웃어주	-11.0692
▁감정들	-11.0705
던게	-11.0707
스러울	-11.071
끈	-11.0715
▁해야하는	-11.0758
▁힘드신	-11.0762
▁현실이	-11.0764
받았다	-11.0768
▁들려	-11.0773
▁날이네	-11.0786
달만에	-11.0824
▁요구하	-11.0827
▁고백이	-11.0829
▁속이는	-11.0851
▁사나	-11.0853
주면	-11.086
▁이겨	-11.0872
▁연애할	-11.0877
▁그러다	-11.0888
하시는	-11.089
나가	-11.0907
▁우정이	-11.092
당하기	-11.0928
적이	-11.0948
▁게임하	-11.0949
난거	-11.0954
▁애인	-11.0954
▁내년	-11.0959
▁본받	-11.0961
▁숙	-11.0967
▁싸우기	-11.0968
▁안하면	-11.0983
다시	-11.0992
끔하	-11.0992
▁첫이별	-11.1003
생인데	-11.1009
이다	-11.1017
값이	-11.1019
▁소원이	-11.1024
▁본다	-11.1026
▁오늘로	-11.1029
▁잔소리해	-11.1041
▁길에	-11.1045
▁돼지	-11.1052
▁즐겨	-11.1064
어이가	-11.107
지못한	-11.1077
▁이별할	-11.108
하다고	-11.1087
온	-11.1093
▁그럴수	-11.1113
어지고	-11.1118
다보니	-11.1145
안나	-11.1148
▁헤어지자네	-11.1164
달라는	-11.1165
▁울면	-11.1173
었지	-11.1174
시도	-11.1181
물이	-11.1182
▁봐야	-11.1185
▁살려	-11.1186
올랐다	-11.1204
▁입어보	-11.122
착	-11.1221
▁있겠	-11.1224
▁하루였	-11.1225
▁노력해야	-11.1226
▁치맥	-11.1228
▁시간이었을	-11.1229
▁깎아	-11.1235
▁알바하면	-11.1245
끝	-11.1251
이라서	-11.1253
▁청소하	-11.1254
▁말아보	-11.1259
해야하나	-11.1268
▁보름달	-11.1278
▁적을	-11.1299
▁얻는	-11.1304
늘	-11.1309
▁공허	-11.1316
▁줬으면	-11.1319
▁사랑만	-11.1325
사랑	-11.1329
▁좋네	-11.1349
▁뭐였	-11.1375
▁든다	-11.1377
▁기다렸나봐	-11.1383
그런	-11.1404
▁슬퍼하	-11.1414
▁화냈	-11.1417
▁잘라	-11.1425
진짜	-11.1427
▁절친	-11.1441
▁바쁘네	-11.1468
▁살거	-11.1472
▁순수	-11.148
지금	-11.1483
입	-11.1497
▁수면	-11.15
▁날까	-11.1522
요일	-11.1527
▁덤덤해	-11.1536
보낼	-11.1541
▁질문	-11.1544
▁안좋아	-11.1553
▁존재하	-11.1556
되가는데	-11.1565
▁먹어보	-11.1566
렸나봐	-11.1607
한게	-11.1618
▁하니	-11.1631
▁안풀	-11.1653
진지	-11.1661
▁것일	-11.1671
편이	-11.1687
▁잔인	-11.1688
어질	-11.1689
▁접어두는	-11.1695
건너	-11.1705
▁꿨는	-11.1705
▁마음인	-11.1713
▁데이트하기	-11.1719
▁할지	-11.1723
어져	-11.1725
자리	-11.1726
해가	-11.1739
▁나라	-11.1757
▁어떻	-11.1783
▁생겼나봐	-11.1786
▁구하	-11.1806
▁벌어	-11.1809
▁않나	-11.1817
워야	-11.1829
▁긍정적이	-11.1832
▁있으신	-11.1834
할게	-11.1835
▁교회에	-11.1842
▁해보면	-11.1849
▁여행이	-11.185
▁붙잡으	-11.1886
많은	-11.1897
▁찾아갔	-11.1899
셨어	-11.1906
▁공시생	-11.1925
▁걸렸	-11.1935
았	-11.1936
방에	-11.1941
▁비워보	-11.1941
무슨	-11.1946
▁연애였	-11.1962
껴	-11.1978
▁이어지	-11.1983
눈	-11.1996
돼야	-11.1998
▁지키	-11.2008
▁들어오	-11.2017
▁극복해	-11.2022
안돼	-11.2039
떡	-11.2042
고민	-11.2042
▁봐달라	-11.2058
▁서점	-11.2068
것은	-11.2075
▁나날	-11.2079
▁사실이	-11.208
▁봤나	-11.2085
▁인정해야	-11.209
직하	-11.21
▁사랑해줘	-11.2101
▁부리	-11.2118
▁성덕	-11.2124
다니고	-11.2142
▁만들었	-11.2145
감정	-11.2148
▁물리	-11.2152
▁안할	-11.216
▁부여	-11.2169
였는	-11.2177
▁익숙해지는	-11.2178
해하지	-11.2187
▁잊어볼	-11.2188
▁성숙	-11.2194
열	-11.2212
좋을까	-11.223
▁낙	-11.224
▁이어나가	-11.2246
▁인정해	-11.2254
▁집앞에	-11.2279
전이	-11.228
▁잊지마	-11.228
▁가까워	-11.228
수있	-11.2305
▁친해지	-11.2309
▁도와주세	-11.2311
▁궁금하다	-11.2313
▁미워해	-11.2324
▁했는	-11.2326
▁아픈가	-11.2327
▁차이일	-11.2335
키	-11.2336
업	-11.2365
가고	-11.2371
▁입는	-11.2382
▁헤어지고나	-11.2387
▁연락올	-11.2395
▁모르니	-11.2398
났네	-11.2407
문제	-11.241
▁이야기는	-11.241
쉬	-11.2412
▁얼어	-11.2415
있는거예요	-11.2419
속	-11.242
▁건강하	-11.2422
아파	-11.2423
▁났어	-11.2431
없네	-11.2447
▁할때	-11.245
▁해드	-11.2453
▁하니까	-11.2457
▁과에	-11.2465
는것	-11.2472
▁괴	-11.2484
▁부족하	-11.2488
▁만족하	-11.2502
오길	-11.2503
체가	-11.2506
▁좋아졌	-11.2518
모두	-11.2543
▁준비하면	-11.2548
사정	-11.2552
▁익숙해	-11.2554
그런건가	-11.2557
▁꿈이었	-11.2563
▁복잡했나	-11.2573
▁아니였	-11.2576
▁알아줄	-11.258
▁보내보	-11.259
늦	-11.2601
▁검색해	-11.2614
▁선물해주	-11.2618
큰	-11.262
된다	-11.2621
웃	-11.2622
▁안정	-11.2625
▁조심해야	-11.2627
하겠어	-11.2628
▁알아주	-11.2629
▁괜찮아졌다	-11.263
▁쓸쓸	-11.263
같지	-11.2633
딱	-11.2638
서도	-11.2655
▁여행가고	-11.2662
안됐네	-11.2671
▁브	-11.2673
퍼	-11.2684
▁구별해	-11.2693
라진	-11.2696
▁보자	-11.2696
▁그리운가	-11.2697
▁로맨틱해	-11.2708
한다는	-11.2721
맨날	-11.2723
▁피곤하겠	-11.2727
미	-11.2727
미리	-11.2731
▁내릴	-11.2731
6	-11.2736
차단	-11.274
후폭풍	-11.2742
갖	-11.2751
손잡	-11.2751
세포	-11.2753
▁잘생겼	-11.2754
받은	-11.2763
하우스	-11.2768
▁힘내라	-11.2773
▁사랑했으니	-11.2773
백한다	-11.2773
▁재회하고	-11.2776
싸	-11.2778
문자	-11.2782
경우	-11.2801
만나자는	-11.2802
▁내렸	-11.2802
쇼핑	-11.2804
계	-11.2805
블	-11.2818
견	-11.282
소리	-11.282
휴	-11.2823
▁사람이었	-11.2827
▁박	-11.2828
▁불금	-11.2833
기름	-11.2836
눈물	-11.284
▁허무하	-11.2846
생각나네	-11.2858
시작이	-11.2858
▁싶을	-11.2862
조절	-11.2864
쪽	-11.2869
▁답인	-11.287
찌	-11.2874
빼	-11.2881
시키	-11.2884
▁가을이	-11.2886
촬영	-11.289
키스	-11.2892
▁애석	-11.2895
액	-11.2897
따	-11.2897
방향	-11.2903
끌	-11.2905
노래방	-11.2905
향이	-11.2908
온대	-11.291
해드	-11.2911
▁덜하	-11.2914
▁돌보	-11.2915
▁반가	-11.2917
▁편하겠	-11.2918
자격증	-11.292
철	-11.292
빙	-11.2922
동생한테	-11.2923
버려야지	-11.2929
▁허전	-11.293
▁싫어하나	-11.2932
쓸	-11.2932
빌려	-11.2933
사귄	-11.2938
이었을까	-11.2939
패	-11.294
케이스	-11.2941
끝났네	-11.2941
나가고	-11.2942
따르	-11.2944
▁그만둬	-11.2946
센	-11.2948
패턴	-11.2949
쏟아	-11.2951
미팅	-11.2957
▁대상	-11.2958
읽씹	-11.2958
워보	-11.296
소모	-11.296
학생	-11.2964
나긴	-11.2965
틈	-11.297
버림	-11.2979
뿌	-11.2979
육아	-11.2983
짠	-11.2988
땅	-11.2988
자리에	-11.2989
부려	-11.2991
태	-11.2996
나쁘	-11.3
▁끌	-11.3002
▁없다가	-11.3002
나네	-11.3004
탈출	-11.3005
단점	-11.3005
아플	-11.3007
솔	-11.301
있다	-11.3011
리세요	-11.3021
초대	-11.3025
나올	-11.3027
▁전하	-11.3028
인사	-11.3028
할까봐	-11.3036
골	-11.3038
▁왜이	-11.3039
심리	-11.3044
낫네	-11.3044
축	-11.3045
▁바람난	-11.3052
▁아무는	-11.3053
▁없나봐	-11.3061
꿨	-11.3062
주차	-11.3071
충	-11.3072
▁사이라	-11.3073
들었어	-11.3082
▁매달	-11.3086
반복	-11.3086
▁싫지	-11.3087
▁씻어	-11.3088
못하겠어	-11.3092
너에게	-11.3103
코스	-11.3106
▁오나봐	-11.3106
전과	-11.311
먼	-11.3115
있네	-11.3117
▁날인	-11.3119
집에서	-11.3123
스타일이	-11.3124
빠질	-11.3125
▁신청해	-11.3127
잘라	-11.3134
시켜야	-11.315
어지지	-11.315
▁집착인	-11.3163
았네	-11.3174
증이	-11.3175
▁예뻐해	-11.3179
▁기억나	-11.3182
▁정리해야	-11.3182
▁잃	-11.3189
있는데	-11.319
▁되도	-11.319
어린	-11.3198
▁꼼꼼	-11.3202
을거	-11.3212
▁떠나보	-11.3214
여의	-11.3221
▁느낀	-11.3222
마셔	-11.3226
다녀야	-11.3229
▁높겠	-11.324
놓으	-11.3243
▁병신	-11.3245
됐으면	-11.3246
▁결혼하는	-11.3246
▁가게	-11.3261
▁착각하	-11.3265
▁직업	-11.3273
▁현금	-11.3277
▁지우는	-11.3279
▁않다	-11.3282
약이	-11.3291
▁생각할수	-11.3305
▁봐봐	-11.3313
▁추	-11.3319
기지	-11.3336
▁변하니	-11.3351
일뿐	-11.3354
▁말들	-11.3361
▁변해가	-11.3365
▁잊혀져	-11.3365
▁피나	-11.337
▁달려	-11.3372
자랑	-11.3373
망이지	-11.3374
▁싫어해	-11.3376
사람이다	-11.3378
그치	-11.3379
릴까	-11.3382
▁표현할	-11.3397
폭풍	-11.3403
▁행복했	-11.3404
▁현실에	-11.3405
▁전화하고	-11.3406
젠	-11.3415
웃으	-11.3418
▁죽고싶	-11.3419
루	-11.3426
▁답답한가	-11.343
▁반응해	-11.3432
람을	-11.3437
▁수학여행	-11.3438
▁복전하	-11.3444
▁약인	-11.3446
▁밉	-11.3448
▁깨달	-11.3456
밀어	-11.3468
▁도망	-11.3471
▁늙어	-11.3482
▁죽는	-11.3482
랐나봐	-11.3483
불가	-11.3484
가입	-11.3491
▁안맞	-11.3495
▁40	-11.3506
▁착각일	-11.3516
쓰는	-11.3521
▁칭찬해	-11.3526
▁씌	-11.3527
소식을	-11.3528
▁반가워	-11.3531
▁사줄	-11.3535
▁부질없	-11.354
▁머릿	-11.3541
조심하	-11.3542
맥	-11.3546
십	-11.3546
▁쟁취하	-11.3547
▁아쉬움	-11.3548
프다	-11.3551
▁세월	-11.3551
▁구멍	-11.3553
▁옳	-11.3559
▁심심하다	-11.3562
쁜	-11.3563
▁익숙	-11.3573
생긴	-11.3575
▁권	-11.3582
▁듣고싶	-11.3593
환	-11.3596
▁어렵겠지	-11.3596
▁스타	-11.36
▁불효	-11.3609
▁추스	-11.361
▁늙	-11.3611
되겠	-11.3611
▁놓쳤	-11.3615
▁전하면	-11.3617
근한	-11.362
▁약해	-11.3621
귄	-11.3623
▁이별이었	-11.3623
▁어쩔수	-11.3625
▁컸	-11.3628
현	-11.3633
▁겁이	-11.3633
▁옥	-11.3634
▁그랬을	-11.3635
으셨	-11.3636
킨	-11.3636
▁엮	-11.3637
▁끓	-11.3637
쩌	-11.3638
▁자유로워	-11.3638
렸으	-11.3638
▁존	-11.3639
험해	-11.3639
첨	-11.3639
습기	-11.3639
말이라	-11.364
쑥	-11.364
났으면	-11.364
끗	-11.364
탄	-11.364
▁밝	-11.364
앗	-11.364
찢	-11.3641
▁컴	-11.3641
▁희생	-11.3641
텔	-11.3641
▁대충	-11.3641
▁렌	-11.3641
▁깔	-11.3642
▁비행기	-11.3642
댓	-11.3642
X	-11.3642
넥	-11.3642
렉	-11.3642
찹	-11.3642
▁건강검진	-11.3642
▁금사빠	-11.3642
▁덮	-11.3642
▁뺏	-11.3642
▁호박씨	-11.3642
닦	-11.3642
템	-11.3642
%	-11.3642
D	-11.3642
O	-11.3642
P	-11.3642
go	-11.3642
▁CC	-11.3642
▁감정컨트롤	-11.3642
▁개당황	-11.3642
▁거리두기	-11.3642
▁곱씹	-11.3642
▁관절염	-11.3642
▁괘씸하	-11.3642
▁교직이수	-11.3642
▁기획사	-11.3642
▁깐깐	-11.3642
▁깬	-11.3642
▁깼	-11.3642
▁나쁨	-11.3642
▁날카로워	-11.3642
▁논문	-11.3642
▁돌싱	-11.3642
▁돌아섰	-11.3642
▁동문서답	-11.3642
▁들이댔	-11.3642
▁띵	-11.3642
▁롤	-11.3642
▁마찬가지	-11.3642
▁모태솔로	-11.3642
▁묻	-11.3642
▁부딪혀	-11.3642
▁부딪히	-11.3642
▁블랙박스	-11.3642
▁빡빡	-11.3642
▁뽀뽀	-11.3642
▁상견례	-11.3642
▁샐러드	-11.3642
▁서툴어	-11.3642
▁섞	-11.3642
▁소극적	-11.3642
▁소풍	-11.3642
▁숏컷	-11.3642
▁스몰웨딩	-11.3642
▁실험실	-11.3642
▁썰	-11.3642
▁안돌아오나	-11.3642
▁애매모호	-11.3642
▁얇	-11.3642
▁예식장	-11.3642
▁옛	-11.3642
▁옮	-11.3642
▁웨딩	-11.3642
▁웨딩드레스	-11.3642
▁의사표시	-11.3642
▁이불킥	-11.3642
▁익숨함	-11.3642
▁재택근무	-11.3642
▁전기장판	-11.3642
▁조명빨	-11.3642
▁주저리주저리	-11.3642
▁중소기업	-11.3642
▁쥐꼬리	-11.3642
▁지겹	-11.3642
▁짬뽕	-11.3642
▁쪘	-11.3642
▁춘곤증인가	-11.3642
▁취뽀	-11.3642
▁컨트롤	-11.3642
▁켠	-11.3642
▁클스마스	-11.3642
▁탄생	-11.3642
▁텁텁	-11.3642
▁포근포근	-11.3642
▁풍부	-11.3642
▁햇볕	-11.3642
▁험담	-11.3642
▁헤헤	-11.3642
▁황당하	-11.3642
▁황당해	-11.3642
▁훈	-11.3642
걍	-11.3642
권이	-11.3642
균	-11.3642
귤	-11.3642
깃	-11.3642
깅	-11.3642
꽂	-11.3642
꿩	-11.3642
넛	-11.3642
넹	-11.3642
뇨	-11.3642
눴	-11.3642
닭	-11.3642
덩	-11.3642
뒹	-11.3642
뚱	-11.3642
띰	-11.3642
랭	-11.3642
룰	-11.3642
룸	-11.3642
룽	-11.3642
릭	-11.3642
맹	-11.3642
메이크업	-11.3642
뮤	-11.3642
밭	-11.3642
벨	-11.3642
붓	-11.3642
뷔	-11.3642
빽	-11.3642
뻤	-11.3642
뽀송	-11.3642
삔	-11.3642
샘	-11.3642
섯	-11.3642
섹	-11.3642
솜	-11.3642
쇠	-11.3642
쑤	-11.3642
씰룩	-11.3642
왼	-11.3642
젝	-11.3642
줍	-11.3642
쥬	-11.3642
즙	-11.3642
징글	-11.3642
짤	-11.3642
쨌	-11.3642
쳇	-11.3642
층	-11.3642
칩	-11.3642
캄	-11.3642
캐	-11.3642
캔	-11.3642
컷	-11.3642
켓	-11.3642
콧	-11.3642
쿼	-11.3642
탐	-11.3642
▁사투리	-11.3642
c	-11.3642
▁가르쳐	-11.3642
▁규	-11.3642
▁김치볶음밥	-11.3642
▁꼴	-11.3642
▁낙엽	-11.3642
▁노처녀	-11.3642
▁두근두근	-11.3642
▁들켰	-11.3642
▁반배정	-11.3642
▁불륜	-11.3642
▁섣부르	-11.3642
▁쌍커풀	-11.3642
▁젊	-11.3642
▁죄송해	-11.3642
▁탄탄	-11.3642
▁피어싱	-11.3642
▁헌팅	-11.3642
▁화풀이	-11.3642
녔	-11.3642
웁	-11.3642
챘	-11.3642
▁깜깜	-11.3642
▁북받쳐	-11.3642
▁식욕폭발	-11.3642
▁정동진	-11.3642
▁폰겜	-11.3642
▁행동일수도	-11.3642
뿅	-11.3642
웽	-11.3642
윙	-11.3642
찡	-11.3642
흡	-11.3642
▁중간중간	-11.3642
▁고구마	-11.3642
▁씨앗	-11.3642
▁괴로웠을	-11.3642
▁댄디	-11.3642
▁선연하	-11.3642
▁콕콕	-11.3642
▁댓글	-11.3642
▁스킨쉽	-11.3642
▁조교하면	-11.3642
▁진부한	-11.3642
▁근황	-11.3642
▁술주정	-11.3642
▁입소문	-11.3642
▁황사	-11.3642
▁처량하	-11.3642
▁식도염	-11.3642
▁카풀	-11.3642
▁견딜	-11.3642
▁섬유	-11.3642
▁으악	-11.3642
▁존경	-11.3642
▁태몽	-11.3642
▁해결방안	-11.3642
▁못믿겠	-11.3642
▁배부르	-11.3642
▁메시지	-11.3642
▁폭식	-11.3642
▁감미로	-11.3642
▁넘어질뻔	-11.3642
▁겉모습	-11.3642
▁왔다갔다	-11.3642
▁핸드	-11.3642
▁허무해	-11.3642
▁쳐다봄	-11.3642
▁유세부	-11.3642
▁헤어졋	-11.3642
▁양면과	-11.3642
▁체육	-11.3642
걸레질	-11.3642
하소연	-11.3642
▁가라앉혀	-11.3642
▁쪽팔	-11.3642
▁서먹해	-11.3642
▁애써봐	-11.3642
▁렌즈	-11.3642
▁답변	-11.3642
▁어장관리	-11.3642
▁동아리에	-11.3642
▁건물주	-11.3642
▁문콕	-11.3642
▁멀미	-11.3642
▁엊그	-11.3642
▁뻔뻔	-11.3642
▁문화센터	-11.3643
▁호텔	-11.3643
▁텅비	-11.3643
▁담담하	-11.3643
▁대리님	-11.3643
▁초조해	-11.3643
된다는	-11.3643
▁경제력	-11.3643
▁대부분	-11.3643
▁쓸모	-11.3643
▁출국	-11.3643
▁슈퍼문이	-11.3643
▁수십번	-11.3643
▁스킨	-11.3643
▁독학하	-11.3643
▁갱신	-11.3643
▁팔찌	-11.3643
▁소홀	-11.3643
잊기싫은	-11.3643
▁영화보재	-11.3643
▁잠식시키	-11.3643
▁주눅들	-11.3643
▁국경	-11.3643
▁부작용	-11.3643
▁드러내	-11.3643
▁애키우	-11.3643
▁퇴사	-11.3643
▁뜬금	-11.3643
▁일반적이	-11.3643
▁눌러	-11.3643
▁지워버리	-11.3643
▁놀이터에	-11.3643
순위	-11.3643
▁광탈	-11.3644
▁폭식증	-11.3644
▁발등	-11.3644
▁언제부터인지	-11.3644
▁주저리	-11.3644
▁알뜰	-11.3644
▁잘지내고있	-11.3644
▁기뻐해	-11.3644
▁복합적	-11.3644
▁시누	-11.3644
투덜	-11.3644
▁구분짓	-11.3644
▁그리웠나	-11.3644
▁무뎌져	-11.3644
▁머물	-11.3644
▁노답이	-11.3644
▁처방	-11.3644
▁가운데	-11.3644
▁변덕스러운	-11.3644
▁야구장	-11.3644
▁감추는	-11.3644
▁헤어졌을때	-11.3644
우니	-11.3644
▁후덜덜	-11.3644
▁답답하신가	-11.3644
▁매순간	-11.3645
▁살려줘	-11.3645
▁변명거리	-11.3645
▁꽃바구니	-11.3645
▁팔뚝	-11.3645
▁소액	-11.3645
▁마음가짐	-11.3645
▁단톡에	-11.3645
▁인형뽑기	-11.3645
▁다가온	-11.3645
빌어먹을	-11.3645
▁앞서서	-11.3645
▁돌아온	-11.3645
▁후련해졌	-11.3646
▁친추	-11.3646
▁대학교	-11.3646
▁잊어버려	-11.3646
▁강해지	-11.3646
▁데려달라고	-11.3646
▁맞출까	-11.3646
▁숨쉬	-11.3646
▁막혔	-11.3646
국물	-11.3646
▁먹먹함	-11.3646
▁명언	-11.3646
▁어째서	-11.3646
▁타입인	-11.3646
▁무색해지네	-11.3646
▁수상한데	-11.3646
▁이별하신	-11.3647
▁흔적이	-11.3647
▁고시생	-11.3647
▁기름값	-11.3647
▁내려놔	-11.3647
▁양다리	-11.3647
▁성급	-11.3647
▁원망스럽	-11.3647
쳐올	-11.3647
▁무뎌진	-11.3647
▁구걸하	-11.3647
▁잡담	-11.3648
▁덤덤하게	-11.3648
▁필요했을텐데	-11.3648
▁일어난	-11.3648
달반	-11.3648
▁직감	-11.3648
▁청강	-11.3648
▁대충했	-11.3648
▁영역	-11.3648
▁사치인	-11.3648
▁영원했으면	-11.3649
▁짝사랑이었네	-11.3649
▁놓아줬	-11.3649
▁이용당	-11.3649
▁비왔으면	-11.3649
▁퇴근시간	-11.3649
▁한심하네	-11.3649
▁신입	-11.3649
▁난처	-11.3649
▁괴로운	-11.3649
▁탓인지	-11.365
▁시절	-11.365
▁바보짓	-11.365
▁불러준	-11.365
▁외박	-11.3651
▁장난친	-11.3651
▁각	-11.3651
▁걸어다니	-11.3651
▁자제하는	-11.3651
▁꼬셔	-11.3651
▁부담된다	-11.3651
▁취급	-11.3651
▁진담	-11.3651
▁끊었으면	-11.3652
▁불타오르	-11.3652
▁데려다줬는데	-11.3652
▁잊어야한다는	-11.3652
▁받아드리	-11.3652
▁예전처럼	-11.3652
▁따위	-11.3652
▁내키는	-11.3652
▁해낸	-11.3652
▁회복되	-11.3653
▁기계	-11.3653
될것같	-11.3653
▁학교생활	-11.3653
▁무덤덤한데	-11.3653
▁되돌리	-11.3653
냈는데	-11.3653
▁예민해져	-11.3653
▁가혹	-11.3653
▁바래다	-11.3653
▁봄방학	-11.3654
▁새롭	-11.3654
▁초초	-11.3654
▁여행지에서	-11.3654
▁잠들기	-11.3654
▁헤어지겠	-11.3655
▁당사자만	-11.3655
가운	-11.3655
▁먹먹	-11.3655
▁절망적	-11.3656
로우니	-11.3656
▁어떻하죠	-11.3656
▁컸으면	-11.3656
▁작별	-11.3656
▁해결해줄	-11.3657
▁아휴	-11.3657
▁비례	-11.3657
▁휴우	-11.3657
바구니	-11.3658
▁싫었는데	-11.3658
킬	-11.3658
주정도	-11.3658
▁서운한거	-11.3658
▁뽑아	-11.3658
▁버려달라고	-11.3659
▁못받	-11.3659
▁찔러	-11.3659
▁눈빛	-11.3659
▁조심스	-11.366
▁놓으려	-11.366
▁돌아다니	-11.366
▁포기하려	-11.366
▁환상	-11.3661
▁정리하려	-11.3661
▁행복하지	-11.3661
키니	-11.3661
▁냉정할	-11.3662
▁맞추려고	-11.3662
▁원두	-11.3662
▁주름	-11.3662
▁냄새날	-11.3662
▁쌓아	-11.3662
▁정리되었길	-11.3662
▁인간적	-11.3662
미칠꺼	-11.3663
▁열받아서	-11.3663
▁일주일째	-11.3663
▁동성애	-11.3663
▁지침	-11.3664
▁한쪽	-11.3664
뜨문	-11.3664
▁골인	-11.3664
▁긴장돼	-11.3664
▁두분이	-11.3664
▁오늘밤	-11.3665
▁식단	-11.3665
▁비추	-11.3665
▁나날이었	-11.3666
크림	-11.3666
꾸룩	-11.3667
▁가족같은	-11.3668
▁심란	-11.3668
▁그립지만	-11.3669
▁않았을텐데	-11.3669
▁깨졌는데	-11.3669
찬하	-11.367
▁서글	-11.367
▁꼬시지	-11.367
▁하품	-11.367
▁차리래	-11.367
▁주체할	-11.367
▁회의감	-11.3671
▁놓쳤다	-11.3671
▁끝냈는데	-11.3671
▁않지	-11.3671
▁정량	-11.3672
▁시켜줘	-11.3673
근무	-11.3673
▁결재	-11.3673
▁파마	-11.3674
▁떠나갔어	-11.3674
▁부담스러운데	-11.3675
▁몸매	-11.3675
▁다음날	-11.3675
▁기울여봐요	-11.3675
▁발렌타인데이인데	-11.3676
▁불효자	-11.3676
▁임신	-11.3676
▁사라질까	-11.3677
개월간의	-11.3677
▁쳐다보	-11.3678
▁지키기	-11.3678
▁영화보	-11.3678
▁또라이	-11.3678
▁돌아간	-11.3679
세우	-11.3679
▁결혼생활	-11.3681
출할	-11.3682
섭섭하	-11.3682
▁잘해준	-11.3683
▁태어났으면	-11.3683
던곳	-11.3683
▁삼주	-11.3683
▁보름	-11.3684
▁순간들이	-11.3684
▁아플까	-11.3684
▁떨어진	-11.3685
▁소용	-11.3686
▁화장하	-11.3686
▁시린	-11.3687
▁돌봐	-11.3687
▁만나지말	-11.3687
▁답답했	-11.3688
▁설레발	-11.3688
▁담아	-11.3688
▁은퇴후	-11.3689
▁아른거	-11.369
▁버리기	-11.369
▁면세	-11.369
▁레고	-11.3691
▁쓰디	-11.3691
▁온천	-11.3692
▁진지한	-11.3692
개월동안	-11.3693
▁돌아올거	-11.3693
▁취향인데	-11.3693
▁위안	-11.3694
▁신을까	-11.3694
▁물건	-11.3694
▁무난	-11.3694
▁과제	-11.3694
▁경과	-11.3695
▁해주기	-11.3695
▁화살	-11.3695
▁순진	-11.3696
진행중	-11.3697
▁싶었는데	-11.3697
액션	-11.3698
느껴진다	-11.37
▁자유로워질까	-11.37
▁이번주	-11.3701
▁보조	-11.3703
▁졸리	-11.3705
관에	-11.3705
▁죽음	-11.3705
▁피해자	-11.3705
▁떨어졌	-11.3705
모닝	-11.3706
▁헤어졌으니까	-11.3706
▁한달됐	-11.3706
▁사랑꾼	-11.3706
▁좋아보여	-11.3706
▁전남자친구	-11.3708
▁판단하지	-11.3708
▁방구	-11.3709
비꼬는	-11.3709
▁겁이나	-11.3709
▁기부	-11.371
리마	-11.371
▁먹여주나	-11.371
▁써야	-11.371
▁잘생긴	-11.3711
▁그만하	-11.3712
▁몇번	-11.3712
▁사이트	-11.3713
▁싫어져요	-11.3713
올릴까	-11.3716
▁사겼는데	-11.3716
▁원하던	-11.3717
▁화났	-11.3718
▁힘드네ᅮ	-11.3718
▁엿같	-11.3718
▁헤어지신	-11.3719
▁동거해도	-11.3719
리스	-11.372
▁마음이란게	-11.372
▁지옥이네	-11.3722
▁도와드	-11.3723
▁깨지고	-11.3725
버렸나	-11.3727
▁아프니까	-11.3728
▁심심하다고	-11.3728
▁심정	-11.3729
▁이것만	-11.3731
▁확실해졌	-11.3731
▁말로만	-11.3732
▁썼는데	-11.3733
웠으면	-11.3733
▁이겨내기	-11.3736
▁오르고	-11.3736
▁생일이야	-11.3736
▁무뎌졌	-11.3737
▁자식	-11.3737
주룩	-11.3738
▁찾아오길	-11.3738
▁오후	-11.3741
▁살만	-11.3742
통이	-11.3745
생에	-11.3745
▁떠오르네	-11.3745
▁부질없는	-11.3746
▁완벽해지	-11.3747
▁괜찮아지길	-11.3747
쓰담	-11.3747
▁서운한	-11.3747
▁메일	-11.3748
▁보시	-11.3749
▁모질	-11.375
▁들어줄래	-11.3751
▁적응해	-11.3751
▁정치	-11.3752
▁정상인가	-11.3752
▁휘둘리	-11.3753
▁마디	-11.3754
▁모자	-11.3756
▁전화하기	-11.3757
▁긴여	-11.3758
▁느끼게	-11.3759
▁하고싶은	-11.3759
▁질린다	-11.3761
▁약이라는	-11.3761
▁불만만	-11.3761
놓은	-11.3761
▁먹방	-11.3762
▁가출	-11.3762
▁꾸는데	-11.3762
▁촉이	-11.3765
▁위대한	-11.3767
▁붙어	-11.3767
▁젖어	-11.3769
▁무사	-11.377
▁사실일	-11.3771
▁억	-11.3771
▁구상	-11.3772
직한	-11.3773
▁상메에	-11.3774
▁안열	-11.3775
▁속지말	-11.3775
▁장수	-11.3775
▁질거	-11.3775
▁모른	-11.3775
▁그런거지	-11.3778
▁다녀와요	-11.3779
나온	-11.378
▁해주	-11.378
▁차임	-11.3781
착이	-11.3783
▁간지러	-11.3784
▁갈구	-11.3784
▁입맛없	-11.3785
▁흘렀는데	-11.3788
▁미안함	-11.3788
▁날에	-11.3789
▁못잊을	-11.3789
▁아물어	-11.3789
▁무색하게	-11.3789
▁들었는데	-11.379
▁털어내	-11.3793
▁상처들	-11.3798
▁궁금한게있	-11.3798
▁이별이야기	-11.38
▁사랑이였	-11.38
▁초기	-11.3801
▁생활비	-11.3803
▁그런건지	-11.3804
▁오늘부	-11.3806
▁흐음	-11.3807
▁되시	-11.3808
▁나이먹	-11.3812
▁회의	-11.3814
▁바본	-11.3816
▁답장해	-11.3817
▁화나고	-11.3817
정말끝이	-11.3817
▁기차	-11.3819
▁그놈	-11.382
▁예	-11.3821
▁비가오	-11.3823
▁후회돼	-11.3824
▁유학간	-11.3824
▁짝사랑중	-11.3825
▁다시만나	-11.3825
▁매달리	-11.3825
▁그분과	-11.3826
▁꺼질	-11.3828
▁확	-11.3828
▁보이는데	-11.3829
데이인데	-11.383
▁설레게하	-11.3832
▁노래들	-11.3835
▁감당이	-11.3836
▁끝내야	-11.3838
▁안되겠지만	-11.3839
▁밉다	-11.384
▁수순	-11.384
▁초라해	-11.3842
▁지내는데	-11.3844
올라	-11.3844
▁나오는데	-11.3845
스럽다	-11.3845
▁솔로인	-11.3848
▁정리해야지	-11.385
▁사랑했다는	-11.3851
▁티비	-11.3855
▁수수한	-11.3859
▁놀려	-11.386
▁끝이보	-11.3861
▁제사	-11.3863
▁있다는데	-11.3864
마시러	-11.3866
쓰레기통	-11.3868
▁냉정해	-11.3871
▁고백해보	-11.3872
법이	-11.3875
참아왔	-11.3875
▁동거중	-11.3876
▁질리게	-11.3878
바싹	-11.3878
▁이별할때	-11.3879
▁오긴	-11.388
일째인데	-11.3882
앞이	-11.3885
추세	-11.3885
▁차렸을	-11.389
▁자금	-11.3892
많이	-11.3894
▁다녀와	-11.3897
▁집사	-11.3901
▁연애하다	-11.3901
▁소통	-11.3901
보내주려	-11.3901
▁다했다	-11.3901
라요	-11.3903
▁도자기	-11.3903
▁살릴	-11.3904
▁대쉬해	-11.3904
▁후련하다	-11.3906
▁구해야	-11.3906
▁다니면	-11.3908
▁시켰	-11.3909
▁온다면	-11.391
▁될거	-11.3912
▁찰랑	-11.3922
아리	-11.3924
▁뭘해도	-11.3926
▁잊었다	-11.3927
▁사랑스럽	-11.3928
▁현상	-11.3928
▁장난치	-11.3929
▁감기약	-11.3929
▁잊혀져가	-11.3929
▁끝이라고	-11.3932
잊어보려고	-11.3932
▁표현이에요	-11.3932
▁밑	-11.3933
▁멀어진다는	-11.3933
▁말했으면	-11.3933
나만	-11.3935
▁기운내	-11.3936
▁떨어지지	-11.3938
▁맘대로	-11.3939
▁부끄러	-11.3939
▁반했어	-11.394
▁부모	-11.3943
▁썩	-11.3944
▁툭	-11.3944
▁안내는	-11.3945
▁너덜너덜해	-11.3945
야해	-11.3947
▁끈이었	-11.3947
조언부탁	-11.3952
▁못하는거	-11.3954
▁술기운	-11.3958
▁다가가기	-11.396
▁푸석	-11.3961
▁예를	-11.3963
▁불쌍	-11.3963
▁치킨	-11.3964
친구에게	-11.3964
▁취직이	-11.3966
▁내려놓으면	-11.3966
▁한마디	-11.3967
어오	-11.3967
▁모양	-11.3967
▁근질	-11.397
▁주절	-11.3971
▁콕	-11.3973
▁하셨나	-11.3974
▁여친과	-11.3977
내세요	-11.3979
▁솔직했	-11.3979
▁홀	-11.3983
▁이루어질	-11.3983
기네	-11.3984
지망	-11.3985
▁연기	-11.3987
▁외로울	-11.3987
▁공감되	-11.3991
▁훈훈하	-11.3994
▁놀라	-11.3996
▁오니	-11.3997
▁양심	-11.3998
유발	-11.4
▁힘들줄	-11.4004
기능	-11.4004
▁한달인데	-11.4007
▁차라	-11.4008
않으려고	-11.4011
▁전화할	-11.4013
환해	-11.4018
▁못잊는	-11.402
▁외로워서	-11.4021
▁엉망	-11.4024
▁직업이	-11.4026
잊혀지려	-11.4027
▁본인만	-11.4028
▁화내는	-11.4029
▁봤으면	-11.4036
▁리액션	-11.4042
▁책보	-11.4045
▁감정적	-11.4046
▁나오지	-11.4053
▁끈	-11.4056
▁느끼	-11.4056
▁낀	-11.4062
▁병신인	-11.4064
▁가까워지	-11.4067
▁잘해줘서	-11.4068
학번	-11.4068
▁싶어서	-11.4074
▁갖는	-11.4076
▁단어	-11.4076
라구	-11.4077
▁만나러가	-11.4083
▁당했습니다	-11.4091
▁구질	-11.4092
하는거같아	-11.4093
기면	-11.4093
긴이별	-11.4094
할거	-11.4098
▁생겼을	-11.4103
▁때문일까	-11.4104
▁감수	-11.4104
▁듬	-11.4105
▁짱나	-11.4114
▁보드	-11.4119
▁있대요	-11.4122
▁이상하지	-11.4128
자가	-11.4134
민가	-11.4139
▁비싸다	-11.414
▁잘했다	-11.4141
▁있었지	-11.4142
두세	-11.4145
▁싫은가	-11.4149
▁사랑이란	-11.4151
▁경우에	-11.4155
▁극복한	-11.4157
것만	-11.416
▁기억할	-11.4165
타이	-11.4168
▁프	-11.4174
▁불렀	-11.4178
▁카톡하는	-11.4186
▁쟁	-11.4186
▁한사람	-11.4186
▁붙잡으려	-11.4189
곳에	-11.4189
던가요	-11.4193
어보	-11.4194
▁없거	-11.4197
▁알지만	-11.4197
▁강요하는	-11.4198
▁사라지	-11.42
▁다정	-11.4201
▁잘지내고	-11.4201
▁헌신하	-11.4208
야할지	-11.4208
▁임	-11.4211
▁씌었나봐	-11.4212
▁그후	-11.4216
▁미쳤	-11.4218
▁떨리네	-11.4223
혼전	-11.4231
▁영화보자	-11.4236
▁밤이	-11.4237
▁존중하	-11.4237
▁축	-11.424
▁다음주	-11.425
하려나	-11.4256
▁덜해	-11.4257
▁차단한	-11.426
나쁜건지	-11.426
▁달래	-11.426
▁사랑받	-11.4261
은거	-11.4267
▁만나고왔	-11.427
▁자유시간	-11.4275
아온	-11.4276
▁상처받았	-11.428
긴했는데	-11.4281
▁좋으면서	-11.4282
▁후련할거	-11.4282
▁대신	-11.4291
▁아파할	-11.4292
걸리겠어	-11.4295
▁번복	-11.4301
해본적	-11.4307
▁않겠지	-11.4309
▁음악이	-11.431
한거니	-11.4311
▁바람난거	-11.4314
▁못잊겠	-11.4314
▁손이	-11.4315
반짝	-11.4318
▁노력한	-11.4327
▁이해못	-11.433
것에	-11.433
샤워해	-11.4332
▁커지기	-11.4333
▁둬	-11.4334
▁친절하	-11.4341
▁줬	-11.4343
쳐요	-11.4347
▁카톡하지	-11.4354
수라	-11.4355
▁처음만	-11.4365
되기	-11.4371
▁그대로인	-11.4377
▁놔주	-11.4378
▁못잊는거	-11.4381
려야	-11.4382
▁뿌리	-11.4388
▁패	-11.4393
▁엄청나	-11.4397
▁그만둬야	-11.4401
▁고민이네	-11.4401
▁익숙해졌	-11.4409
▁지쳐가네	-11.4414
트인	-11.4415
▁빙	-11.4415
고쳤	-11.4417
▁낸다	-11.4419
▁모르겠지	-11.4421
▁잘라야	-11.4422
는건지	-11.4423
▁지금까지	-11.4427
▁붙잡을	-11.4428
▁연애끝	-11.4432
▁사랑했는데	-11.4434
▁주차	-11.4435
▁아끼는	-11.4436
감각	-11.4438
▁응원해주면	-11.444
잡으려고	-11.4442
▁추우니	-11.4447
내야하나	-11.4451
▁촬영	-11.4453
▁방향	-11.4453
▁해외여행가	-11.4454
▁맞춰보	-11.4459
▁못자고	-11.4463
▁비참하	-11.4463
여친	-11.4465
▁못내는	-11.4468
▁그사람은	-11.4469
▁속지	-11.4469
▁정리해야할	-11.447
▁키스	-11.4472
▁사귀면서	-11.4476
▁생각지	-11.4481
▁어떤거	-11.4485
▁높이	-11.4489
▁날이었	-11.449
만이라	-11.4495
▁풀어주	-11.4497
▁반복될까	-11.4497
▁투자하는	-11.4499
해야할	-11.4505
▁후련	-11.4508
▁깊이	-11.4515
▁내장	-11.4516
▁깨졌	-11.4533
▁잊어가	-11.4542
▁전여친이	-11.4545
▁기억들	-11.4548
▁멀어	-11.4549
▁한데	-11.456
돼요	-11.4573
▁쓰다	-11.458
▁귀엽다	-11.4581
보내	-11.4583
▁타로	-11.4591
▁지쳐가	-11.4598
▁세포	-11.4603
▁단순하	-11.4616
하겠	-11.462
▁왕따인	-11.4621
▁가는거	-11.4622
▁나빠졌	-11.4622
▁놈이	-11.4626
▁내맘같	-11.4632
해드리	-11.4634
느리	-11.4641
만두	-11.4646
▁침대에	-11.4652
▁키워보	-11.4656
▁거래	-11.4664
▁연락하고싶어	-11.4667
학원에	-11.467
제로	-11.468
▁여부	-11.4684
▁선물할	-11.4686
내줄게	-11.4687
▁만들어주	-11.47
▁대상이	-11.4702
▁운명인	-11.4705
▁구별	-11.471
▁어색할까	-11.4724
겼다	-11.4727
▁존중하는	-11.4769
▁짝사랑일	-11.4778
▁싫어할	-11.478
같아요	-11.4787
▁생각나서	-11.4788
▁적절	-11.4793
▁새장	-11.4794
원합니다	-11.4795
▁짜증나게	-11.4803
▁타이밍인	-11.4806
르는	-11.4815
▁심각	-11.4823
상해	-11.4826
▁롱	-11.4826
▁조심해야겠	-11.4827
▁걷는	-11.4834
▁근	-11.4837
돋을	-11.4841
▁복잡하네	-11.4844
▁납니다	-11.4849
틀	-11.4858
▁남이	-11.4859
▁바보라	-11.4874
우선이	-11.4875
▁줄이고	-11.4876
▁투	-11.4885
▁잘된	-11.4894
▁죄인	-11.4895
었을까	-11.4898
▁쌈	-11.4902
▁첫사랑인	-11.4902
지우는게	-11.4922
다는것	-11.4927
▁괴로	-11.4935
분들께	-11.494
▁최악이	-11.4947
▁지우려	-11.4951
▁겠지	-11.4972
▁그런거	-11.4975
적을	-11.4978
▁울적하	-11.4987
▁만큼만	-11.499
▁생각하세	-11.5002
사고	-11.5003
▁까먹지	-11.5015
▁잊고싶	-11.5015
했잖아	-11.5017
동을	-11.502
▁불안	-11.5032
▁같기도	-11.5035
▁잊은	-11.5036
▁잡기	-11.5051
▁이별하려	-11.5052
사이	-11.5056
▁보수적이	-11.5071
▁다녀온	-11.5075
▁이별후에	-11.5082
▁꽝이	-11.5087
▁놀랐겠	-11.5091
▁하라	-11.5096
▁되었는	-11.5107
▁성숙해	-11.5114
▁씻기	-11.5116
▁거절인	-11.512
▁폭	-11.5134
다는걸	-11.5137
어진	-11.5149
채나	-11.5155
▁안돼나	-11.5159
별의	-11.516
▁직장인이	-11.5164
상화	-11.5167
▁알겠	-11.5168
▁터지겠	-11.5188
가봅	-11.5194
▁모의	-11.5195
▁전부였	-11.5195
하기로했	-11.5198
▁찍은	-11.5203
▁참아야겠	-11.5206
이었는데	-11.5228
▁생각났	-11.5239
▁클럽가	-11.5247
▁올라오	-11.5252
▁오나	-11.5255
▁없을거	-11.5269
▁냉정하	-11.5272
▁척도	-11.5275
▁좋아보	-11.5278
은것같	-11.5292
갈래	-11.5301
▁햇	-11.5306
▁S	-11.5316
인가보다	-11.5317
▁이쁘	-11.5323
녀와	-11.5325
▁싫어하	-11.534
▁감성적	-11.5341
했을	-11.5342
▁프사가	-11.5344
▁면	-11.535
▁식상	-11.5351
▁쿨하	-11.5364
▁착해	-11.5366
▁잠들	-11.537
▁착각인	-11.5377
▁가라	-11.5378
▁그나	-11.5379
▁해봐야	-11.5381
▁삼가	-11.5388
로라	-11.539
▁보고싶어요	-11.5401
점이	-11.5413
▁생각해야	-11.5415
아무일	-11.5416
▁사람일까	-11.5422
▁단계라	-11.5423
았다	-11.5429
싫어	-11.543
▁위로받	-11.5431
물이라	-11.5434
▁받아들여야할	-11.5447
▁구경	-11.5473
데기	-11.5475
▁높이는	-11.5485
▁잘되	-11.5491
▁하는걸	-11.5504
▁기복	-11.551
▁지지	-11.5511
▁먼저하는	-11.5515
▁정으로	-11.5525
▁언	-11.5528
▁취업하	-11.5529
오셨어요	-11.5529
▁지나갔네	-11.5532
▁공원	-11.5535
▁잊어야해	-11.5545
▁할일	-11.5561
▁은퇴해야	-11.5561
▁단톡방에	-11.558
▁지키는	-11.5587
▁말아	-11.5591
이너	-11.5596
▁놓았	-11.5607
▁기억하	-11.5617
냈	-11.5628
서점에	-11.563
▁크겠	-11.5643
보네	-11.5644
▁지독	-11.5675
▁왕	-11.5691
▁내릴까	-11.5698
돌이	-11.5729
▁다른반	-11.5737
▁그런건	-11.5741
▁저장할	-11.5742
▁비워	-11.5746
▁찾아갔네	-11.5761
▁행동을	-11.5769
▁살았다	-11.5772
▁떠나요	-11.5778
▁해줬	-11.5781
▁안해야	-11.5789
▁연락왔	-11.5799
져야	-11.5799
▁헤어진다	-11.5801
▁안한	-11.5802
갔	-11.5813
▁과식했	-11.5814
▁잊어야겠	-11.5826
기울이세요	-11.5829
기간	-11.5876
ᄒ	-11.5898
겨울	-11.5953
▁했을까	-11.5963
▁필요없어	-11.5968
▁보내버렸	-11.5971
와주	-11.5978
▁망설여지	-11.598
▁투자라	-11.5983
된거	-11.6001
보고싶네	-11.6004
▁그리워지	-11.6006
▁부담스러워해	-11.601
▁가수	-11.6011
▁따듯해	-11.6021
▁생겼는	-11.6026
▁여자야	-11.6028
▁궁	-11.6037
▁쌓이	-11.604
월해	-11.6088
▁짝사랑하	-11.6091
달래	-11.6103
잡히	-11.6104
비해	-11.6122
▁구하는	-11.6122
하자는	-11.6123
▁간에	-11.6126
▁못했는	-11.6127
▁불타	-11.6133
▁나을가	-11.6133
뻔했	-11.6138
▁잠수이별인	-11.6148
▁반이라	-11.6159
▁떠나갔	-11.616
보이	-11.6164
무리	-11.6168
▁기억안	-11.6186
인이	-11.6187
▁풀렸다	-11.6195
▁사랑인	-11.6201
▁다가갈	-11.6227
▁라는	-11.6237
들겠지	-11.6241
▁붙였	-11.6252
▁잘자	-11.6284
▁것에	-11.6294
▁어떤건	-11.6305
▁비슷한가	-11.6327
▁가득한가	-11.6332
▁표현해주	-11.6341
줘요	-11.636
▁살인	-11.6369
▁오래걸	-11.6388
야하는데	-11.6403
뭐냐	-11.6418
▁잠겼	-11.6424
▁편식	-11.6425
▁많을까	-11.643
해주면	-11.6439
▁절친이	-11.6451
고있었는데	-11.6465
▁부르는	-11.6468
▁터졌	-11.6468
▁별이	-11.6485
▁연애상담	-11.6486
▁실망했	-11.6489
▁찾았	-11.6492
됐군	-11.6495
▁철벽치	-11.6497
▁몰랐네	-11.6504
▁가망	-11.652
▁편안	-11.6556
가도	-11.6568
▁챙겨줄	-11.6591
▁차별받	-11.6623
▁불행해	-11.6629
▁미쳐	-11.6648
▁전해지	-11.6651
쓰기	-11.6656
▁추천해드	-11.6668
▁상처받아	-11.668
사람과	-11.6687
정적	-11.6691
남자친구	-11.6693
거지같이	-11.6706
▁보름달이	-11.6719
로워	-11.6734
▁욕먹	-11.6745
▁잘한	-11.6773
▁일이었	-11.679
려달라고	-11.6799
▁부럽	-11.6814
▁괜찮았	-11.6818
▁살랑	-11.6823
▁안해서	-11.6838
▁관심있는	-11.6859
할수	-11.6864
▁불면증인가	-11.687
것인가	-11.6902
▁술마시면	-11.6915
▁사야겠	-11.6933
덤덤해졌	-11.6939
▁체	-11.695
▁마셨어	-11.695
▁공시생이	-11.6953
▁마주보	-11.697
시간만큼	-11.6981
▁꿈이라	-11.7006
년동	-11.7007
아볼	-11.7018
초반	-11.7025
▁밥도	-11.7035
으시는	-11.7052
이러니	-11.7054
가기	-11.7073
▁반이	-11.7079
▁싱숭생숭하	-11.7097
▁못나	-11.7097
선의	-11.7103
▁쉽지않	-11.7105
▁생겼다는	-11.7116
▁보자는	-11.7122
안된다	-11.7132
▁잔소리	-11.7138
▁끝내려	-11.7143
▁변할까	-11.7144
▁잘못했다	-11.7147
▁백	-11.7149
▁전화해	-11.717
끔	-11.7175
▁재밌겠	-11.7177
▁습관이라	-11.7189
▁반하	-11.7209
올거	-11.7209
▁군대가	-11.7226
닫고	-11.724
▁거는	-11.7252
신가	-11.7257
▁일이네	-11.7291
▁연락하고싶	-11.7293
성이	-11.7323
잘못으로	-11.7324
라이	-11.7327
▁운명같	-11.7331
▁오래타	-11.7347
해졌나봐	-11.7375
▁안된	-11.7399
▁모임이	-11.7407
▁한편	-11.7429
▁지켜야	-11.7434
▁나오는	-11.7441
▁진정하	-11.7461
▁힘들만	-11.7465
▁선택했	-11.7469
▁돌아왔	-11.7471
▁비가오니	-11.7473
부지	-11.748
▁준다	-11.7485
▁지내자	-11.7488
▁운동하자	-11.7498
지려고	-11.75
보이는	-11.7514
▁차였	-11.7551
이런거	-11.7558
▁추억을	-11.7567
▁만납	-11.759
▁거리	-11.7611
어주지	-11.7614
려지	-11.7615
말은	-11.7622
움이	-11.7652
▁남을까	-11.7653
▁했더	-11.7656
만난	-11.7673
▁되셨	-11.7722
▁얼마전	-11.773
로운	-11.7735
아지길	-11.7752
▁아닌것	-11.7769
▁줬다	-11.7786
▁싸움이	-11.7794
▁무서운건	-11.7808
▁되버렸	-11.7809
▁니	-11.7809
어졌어	-11.7822
하셨나	-11.7828
그여자	-11.7834
랐	-11.7854
▁신청했	-11.7868
▁채워보	-11.7879
보이네	-11.7882
▁힘들일이	-11.7882
▁이마	-11.7888
▁연락해봐	-11.7899
▁함께하	-11.7903
▁여자에	-11.7905
▁맞나봐	-11.7912
맘이	-11.7915
▁경험해보	-11.7922
▁배려하	-11.7943
▁샤워하	-11.7964
▁아침이에	-11.797
▁들리네	-11.7986
▁될수	-11.8004
▁아쉽지	-11.801
▁풀었	-11.8017
▁했었	-11.8021
받아서	-11.8025
▁만날수	-11.8044
▁가을	-11.807
것이	-11.8079
▁의외인	-11.8086
▁기한	-11.809
고의	-11.8116
정말	-11.8129
식이	-11.8137
▁멍청하	-11.8141
사람들	-11.815
보고싶어	-11.8157
안했을	-11.8187
▁떠나야겠	-11.8279
▁두려	-11.828
▁정상이	-11.8293
랑하는	-11.8312
들지만	-11.8315
▁몇시간	-11.8322
▁힘겨	-11.8334
▁좋아하면서	-11.8373
할지	-11.8396
자신	-11.84
데도	-11.8402
▁흐르네	-11.8411
자는	-11.8419
▁같았	-11.8422
▁연애중인	-11.8432
▁그러니	-11.8435
▁행동하	-11.8446
▁잘못했다는	-11.8453
▁갔다왔	-11.8459
▁원망하	-11.8461
▁이사가	-11.8467
▁ᄏ	-11.8468
왜	-11.8507
거래	-11.851
▁내편	-11.8512
▁문제네	-11.8517
▁무덤덤	-11.8532
중한	-11.8563
▁건네	-11.8567
▁매달렸	-11.8607
▁나간	-11.8607
일이야	-11.8614
이였	-11.8624
▁준비해야	-11.8632
▁두려운가	-11.8633
▁철벽치는	-11.8637
▁난다	-11.8649
담하	-11.865
드는	-11.8655
▁이해해줄	-11.8688
▁연애상담해	-11.8695
▁서운하겠	-11.8705
들이지	-11.8718
▁끝나가	-11.8723
▁혼자라는	-11.8747
▁사람이네	-11.8773
당해요	-11.8773
만하는	-11.8775
▁그러려	-11.8779
▁질려	-11.8786
떠나려	-11.879
질까	-11.8806
▁왜이러	-11.8813
드시	-11.8819
▁싫어졌	-11.883
가져	-11.8846
▁헤어진건	-11.8875
▁일일	-11.889
▁결혼식이	-11.8892
▁철벽	-11.893
▁순간에	-11.8938
중에	-11.8943
▁가득한	-11.8954
틀어	-11.8963
여행이	-11.8966
▁밤이네	-11.8976
▁돌리고	-11.8978
기니	-11.8978
▁끝났다	-11.8997
▁겨울이	-11.9012
▁예뻐졌	-11.9013
내려	-11.9024
▁제자리걸음이	-11.9032
다네	-11.9043
▁힘들대	-11.9049
이었	-11.9068
녀한테	-11.9082
▁불타올	-11.9089
먹으면	-11.9093
셨어요	-11.9103
▁생각했을	-11.9111
▁밥먹	-11.9117
▁사랑하는건	-11.9135
▁생각한다	-11.9143
▁중요하겠지	-11.9145
나와	-11.9147
르겠지만	-11.9151
끌리	-11.9159
간에	-11.9167
답이	-11.9197
▁연락해보	-11.921
▁나약하	-11.9211
▁들어주	-11.9215
보고싶	-11.9215
▁올거	-11.9219
▁해가	-11.9226
잡	-11.9237
왔으면	-11.9245
▁힘든건	-11.9264
▁남긴	-11.9285
▁않겠	-11.9298
▁생각나기	-11.9309
▁좋았겠	-11.9318
었다는	-11.9318
어버렸	-11.9325
▁휴지	-11.9335
▁인정해야할	-11.9343
닐까	-11.9344
하겟	-11.9348
▁망설여지는	-11.9354
▁여행가는	-11.9362
한건	-11.937
째인데	-11.9371
줄래	-11.9374
▁내길	-11.9376
사랑이	-11.9383
히는	-11.9394
네ᄒ	-11.9401
▁돌아가면	-11.9405
전할	-11.941
▁평가해	-11.9424
하라	-11.944
받는	-11.9458
▁산책하	-11.946
못된	-11.9471
▁다른일	-11.9473
▁상황인	-11.9488
▁모르지	-11.9496
▁환승이	-11.9549
▁맞았네	-11.9552
▁미치네	-11.9562
순간에	-11.9566
▁일인가봐	-11.958
해보는	-11.9598
어버리세요	-11.9599
▁사내에	-11.96
▁많으	-11.9624
낸	-11.9628
▁차단했	-11.9643
▁결혼이	-11.9648
▁도서관에	-11.9652
▁취직하고	-11.9654
힘든	-11.9666
연락	-11.9685
졌	-11.9689
▁못잊	-11.9691
▁보내왔	-11.9692
▁않음	-11.9694
▁어디있	-11.9701
▁낫네	-11.9701
상대로	-11.9711
▁잊어주	-11.9716
▁괜찮았는	-11.9718
▁긴장하	-11.9722
▁온거	-11.9725
조심	-11.9746
▁운	-11.9761
▁일년같	-11.9773
▁무시했	-11.9773
주의	-11.9778
▁케	-11.9806
▁말려	-11.9815
못해	-11.9831
▁단톡방	-11.986
었음	-11.9865
▁연습하	-11.9883
▁놀리	-11.9901
▁냉정	-11.9904
▁뒤숭숭	-11.9905
▁찾아가보	-11.9934
▁지속	-11.9939
내는	-11.9947
주신	-11.9958
맞는다면	-11.9982
▁멈춰버	-11.9982
▁인스타에	-11.9991
끝이	-11.9996
▁움	-12.0006
▁쓴다	-12.0007
시간동안	-12.0031
좋은	-12.0089
해주고	-12.0095
▁힘들기	-12.0121
아들	-12.0153
▁보내려	-12.0192
▁포기해야할	-12.0196
히나	-12.0231
보려고	-12.0238
있죠	-12.0242
한가봐	-12.0253
연애인데	-12.0257
술	-12.029
▁아니었나봐	-12.0303
▁익숙함	-12.0305
해야하는	-12.0309
힘드네	-12.0311
해지는	-12.0311
해봐	-12.0315
▁맞은	-12.0325
▁스킨십하고	-12.0334
▁참았	-12.0346
▁운동하면	-12.0357
▁충전해야	-12.0367
▁미루는	-12.0389
▁없었겠	-12.0397
청소	-12.04
▁깨지	-12.0416
해보시는	-12.0416
느	-12.0419
▁반장이	-12.0432
▁지우지	-12.0437
해졌어	-12.0443
▁멀었나	-12.0445
▁먹었나봐	-12.0452
▁먹으니	-12.0454
▁못하나봐	-12.0457
▁불편하	-12.046
▁데이트하	-12.0501
힘들어	-12.051
▁하나봐	-12.0511
▁죽었나	-12.0519
▁올랐	-12.0529
▁대하	-12.0529
헤어진	-12.0532
켜	-12.0535
▁도네	-12.0542
다를	-12.0542
▁단거	-12.0553
같네요	-12.0572
▁초대해	-12.0623
는거같아	-12.0634
되겠지	-12.0635
▁붙잡아보	-12.0636
▁꽝	-12.0645
이니까	-12.0646
▁변명이	-12.0646
▁알바해보	-12.0653
▁지냈나	-12.0686
▁더럽	-12.0694
▁지하철	-12.0697
▁참아야	-12.0703
앞	-12.0704
카톡	-12.0711
▁가져봐	-12.0712
이었나봐	-12.0731
▁자만	-12.0737
▁당황스러	-12.0741
바라	-12.0743
▁간사	-12.0745
이신	-12.0768
▁중요한가	-12.0769
모르겠어	-12.0773
▁질투하	-12.0774
▁저장	-12.0785
▁잡는다	-12.0792
이게	-12.0819
▁따야	-12.0842
▁없었나봐	-12.0853
▁날이에	-12.0857
▁허락	-12.0857
좋겠다	-12.0874
▁변했	-12.088
▁있는건	-12.0884
▁잊었는	-12.0896
▁잊어버리	-12.0898
같았	-12.0902
▁결혼해야할	-12.0915
▁아들	-12.0931
으면서	-12.0937
둬	-12.0956
▁보수적	-12.0987
못하고	-12.099
않아	-12.0991
▁뭘해야	-12.0997
▁걸지	-12.1046
▁돋	-12.1074
타면	-12.1076
이유	-12.1088
나고	-12.1095
▁갔을	-12.1096
같죠	-12.112
▁우는	-12.1121
▁직장인	-12.1126
▁보내야	-12.113
▁집착인가	-12.1135
만나고	-12.1161
▁느끼나	-12.1206
▁못하겠네	-12.1215
▁싫으	-12.1219
언제	-12.1223
귀	-12.1229
했더	-12.1234
오는	-12.1239
좋은건	-12.1246
▁밀당해	-12.1255
거울	-12.1257
해진	-12.1261
▁창업해	-12.1261
잊혀지	-12.1262
려서	-12.1268
이었나	-12.1271
굴	-12.1286
내보세요	-12.1303
놓	-12.1307
▁차단이	-12.1311
적하지	-12.1318
천하	-12.1318
▁가네	-12.1335
알	-12.1346
▁상처에	-12.1348
휴가	-12.1373
이인데	-12.1388
마지막	-12.1389
▁다녀오	-12.139
짰다	-12.1391
▁조금이	-12.1395
▁선에	-12.1398
이거	-12.1408
▁휴학하	-12.1413
고픈	-12.1413
조언	-12.1423
▁백업	-12.1433
▁싸웠는	-12.1439
생	-12.1445
알았는데	-12.1451
▁내꺼	-12.1453
헤어짐	-12.146
아직도	-12.1467
났	-12.1469
▁남아있나	-12.1489
나갔으면	-12.1501
쟁	-12.1504
해가는	-12.1513
▁두려워지	-12.1519
▁데이	-12.1523
▁어색	-12.1538
▁안되겠	-12.1539
덜	-12.1539
인생	-12.1542
짝남한테	-12.1543
드는데	-12.1545
▁밖	-12.1558
왔을	-12.1571
▁갠톡하	-12.1571
였다	-12.1575
셨을	-12.1577
▁끊기는	-12.1603
얼	-12.1623
▁어찌보	-12.1644
▁길다	-12.1647
어디	-12.1652
▁내려놓는	-12.1657
▁매력적	-12.1663
▁오래가	-12.1668
경	-12.1685
▁여기까지였나	-12.1686
펴	-12.1687
미련	-12.1688
다면서	-12.1695
의해	-12.1701
▁자게	-12.1701
▁되었다	-12.1701
써	-12.1704
꼭	-12.1714
추억	-12.1724
순간	-12.1724
▁사랑이었	-12.1733
활	-12.1747
▁반복될	-12.1748
▁어색할	-12.1772
생일	-12.1775
버리겠	-12.1787
▁청춘	-12.1788
커피	-12.1789
날씨	-12.1793
벽	-12.1795
하겠지	-12.1802
▁말해줄	-12.1803
아닌	-12.1804
앞에	-12.1809
▁너그	-12.1813
▁상태인가	-12.1819
▁타야	-12.182
▁혼자있	-12.182
결정	-12.184
서로	-12.1841
▁이해해야	-12.1843
▁이기적	-12.1849
▁얼었나	-12.185
잠	-12.1854
밤	-12.1861
는대로	-12.1873
영화	-12.1889
느낌	-12.1905
놀	-12.1909
빨리	-12.1916
밀	-12.1931
신경	-12.1941
의미	-12.1942
과일	-12.1945
위기	-12.1953
을수	-12.1956
부러	-12.1962
▁사람인가	-12.1962
▁없었으	-12.1963
▁해봤	-12.1965
▁모르나봐	-12.1969
▁든	-12.1982
▁털어버	-12.1982
▁친구같	-12.1999
꽃	-12.2004
이별을	-12.2006
주라	-12.201
헤어졌습니다	-12.2011
일어나	-12.2012
▁아끼	-12.2016
해주세	-12.2027
있을	-12.2045
오는데	-12.2055
이런	-12.2057
뜻	-12.2059
빠	-12.2059
▁알게되	-12.2064
▁알았나	-12.2081
직장	-12.2081
▁덤덤	-12.2081
본지	-12.2086
헤어지	-12.2096
▁맞는건	-12.2098
▁이시간	-12.21
듯해	-12.2108
▁흘	-12.2129
▁딸	-12.2142
모	-12.2144
▁만났네	-12.2148
여유	-12.215
▁생각했나	-12.2163
싫다	-12.2165
놀아	-12.2168
손	-12.2171
▁끊어	-12.2187
▁갑작스	-12.2194
축하	-12.2209
여기	-12.2221
않았	-12.2226
위해	-12.2228
▁말해본	-12.2234
카페	-12.2243
▁놓아보	-12.2259
잠깐	-12.2259
시험	-12.2259
란게	-12.2264
했었	-12.2272
맞	-12.2275
당히	-12.2288
하늘	-12.2289
▁소중하	-12.2291
꿈에	-12.2293
▁적당	-12.231
▁헌신	-12.2319
교	-12.2326
▁기대하면	-12.2331
끝나	-12.2333
상하지	-12.2347
차리	-12.2349
▁농구	-12.2353
짜증나	-12.236
위로	-12.2362
▁피곤할	-12.2363
하자는데	-12.2377
자신이	-12.2378
곧	-12.2383
찾기	-12.2385
▁일어나보	-12.2386
떨	-12.2388
별로	-12.239
안되는	-12.2393
브	-12.2396
▁전화하면	-12.2403
덕	-12.2405
▁관리해	-12.2405
숨	-12.2413
움에	-12.2423
▁감사해	-12.2436
▁마음속에	-12.2438
미쳤	-12.2449
▁결혼할까	-12.2452
▁안난다	-12.2454
짜	-12.2456
이요	-12.2487
▁좋아하는건	-12.2489
듣	-12.249
▁동거하는	-12.2492
예의	-12.2499
봄	-12.2501
얘기	-12.2508
듬	-12.251
됐네	-12.2519
꼬	-12.2524
춘	-12.2525
▁묻어두	-12.2526
핑	-12.2527
우울	-12.2528
▁수준이	-12.2528
한잔	-12.2529
▁되었어	-12.253
장거리	-12.2534
마시	-12.2534
가능성	-12.2535
극복	-12.2537
미세먼지	-12.2544
노력	-12.2546
▁시간들	-12.2547
▁생각들	-12.2551
▁사랑이었을	-12.2552
러가	-12.2552
▁갈거	-12.2552
▁후폭풍인가	-12.2552
▁마시니	-12.2555
크리스마스	-12.2555
흘렀네	-12.2559
취미	-12.256
등	-12.2567
말해	-12.2567
▁씌었	-12.2573
살아야	-12.258
알면서도	-12.2582
시어머니	-12.2585
▁줄어	-12.2592
효	-12.261
나갈까	-12.261
만나지	-12.2612
졌다	-12.2612
척이	-12.2613
▁같았나	-12.2626
낀	-12.2638
▁벗으	-12.2641
희망	-12.2643
▁출근이	-12.2654
나가나	-12.2655
갔는데	-12.2662
끊었	-12.2662
났나봐	-12.2662
직구	-12.2672
만나기로	-12.2675
창이	-12.2676
▁잡혀	-12.268
▁잤나	-12.2681
말투	-12.2683
안되	-12.2684
▁리액션해	-12.2685
지났네	-12.2686
sns	-12.2687
▁찌질	-12.2689
프로포즈	-12.2693
힘듭니다	-12.2693
졸	-12.2693
추억이	-12.2694
편할	-12.2694
생각나	-12.2704
근처	-12.2709
좋았	-12.2711
바꾸	-12.2714
전공	-12.2715
악	-12.2716
듣고	-12.2718
되셨	-12.272
▁하자	-12.2722
오르	-12.2722
▁엉	-12.2724
▁받을까	-12.2725
르지	-12.273
마시면	-12.2732
▁타나봐	-12.2736
집착	-12.2737
깜	-12.2738
큼	-12.2744
곳이	-12.2746
쥐	-12.2747
8	-12.2747
쐬	-12.2747
해준	-12.2747
원망	-12.275
견해	-12.2753
무시하	-12.2753
우울해	-12.2753
베터리	-12.2754
않네	-12.2757
사실	-12.2758
똥	-12.2765
잇	-12.2765
잤	-12.277
두번	-12.277
▁않을거	-12.2783
떠	-12.2783
더워	-12.2784
그럴까	-12.2785
정류장	-12.2786
소비	-12.2788
▁훈훈	-12.2792
▁무기력하	-12.2795
공간	-12.2799
노력해	-12.28
능력	-12.2801
센스	-12.2801
아졌어	-12.2802
상태	-12.2803
없을까	-12.2806
▁웃으	-12.2806
▁못내	-12.2808
충격	-12.2811
홀	-12.2814
쓴	-12.2815
넌	-12.2817
깊	-12.2818
했다는	-12.2823
▁보듬어	-12.2825
언제까지	-12.2831
빠져	-12.2831
취직	-12.2833
안오	-12.2834
시급	-12.2835
콕	-12.2838
▁무뎌	-12.2838
있더라	-12.2838
밤에	-12.2839
9	-12.284
▁남았나	-12.2841
외국어	-12.2842
있으신가	-12.2842
나는데	-12.2846
응	-12.2848
예감	-12.2849
넘었는데	-12.2852
보러가	-12.2856
잊고싶	-12.2857
한마디	-12.2857
기다리지	-12.2857
남은	-12.2859
아파트	-12.2861
프로필	-12.2862
불쌍	-12.2862
술한잔	-12.2864
견디기	-12.2864
답답해서	-12.2865
불공평	-12.287
성형	-12.2871
치킨	-12.2871
왔나봐	-12.2873
다툼	-12.2875
듣기	-12.2875
돌아	-12.2876
차례	-12.2877
주택	-12.2877
베	-12.2878
칼	-12.2882
축제	-12.2884
▁변할	-12.2884
설명	-12.2888
바늘	-12.2888
죽겠다	-12.2894
총회	-12.2894
불쑥	-12.2896
괜찮은	-12.2897
여자와	-12.2898
뛰어	-12.2899
근질	-12.29
누	-12.29
은것만	-12.2901
입을까	-12.2901
키울	-12.2902
날짜	-12.2903
꾸미	-12.2904
▁너덜너덜	-12.2904
▁연애하	-12.2905
주절	-12.2906
썩	-12.2906
툭	-12.2906
▁개같	-12.291
모양	-12.2913
잡아보려	-12.2917
집앞	-12.2918
깜빡	-12.2918
공개	-12.2919
나타났	-12.2919
낳	-12.2921
찼	-12.2921
착한	-12.2923
부모	-12.2927
끝인가	-12.2929
예약	-12.2932
밑	-12.2932
만나	-12.2933
밟	-12.2936
보내버렸	-12.2936
현상	-12.2937
가득	-12.2939
관리	-12.2942
떼	-12.2942
쭉	-12.2942
흠	-12.2942
그만하고	-12.2944
놀러가	-12.2945
도와주	-12.2945
윗	-12.2945
쫄	-12.2945
봤으면	-12.2946
당했습니다	-12.2948
▁잊어보려	-12.2954
죽는	-12.2954
100	-12.2956
똑똑	-12.2957
▁곁	-12.2957
▁무리하	-12.2958
걸리	-12.2958
잊	-12.2961
워질거	-12.2962
김치	-12.2967
빠지	-12.2967
농	-12.2968
남자한테	-12.2973
지났는데	-12.2974
냉	-12.2976
너와	-12.2978
▁손톱	-12.2981
웃음	-12.2986
년이라	-12.2986
시켰	-12.2988
비용	-12.2988
쓰다	-12.2993
▁속시원	-12.2997
▁저음	-12.3
놀이	-12.3002
말았	-12.3008
털	-12.3013
있다는	-12.3017
달차	-12.3021
▁잊혀	-12.3022
운전	-12.303
아픔이	-12.3031
▁대쉬	-12.3034
날이	-12.3042
막힌다	-12.3046
▁막막	-12.3049
내릴	-12.306
▁이별인가봐	-12.3066
으신	-12.3067
▁얘기할	-12.3072
이런건	-12.3077
보냈어	-12.3091
멋	-12.3093
남기	-12.3093
봐봐	-12.3098
▁고맙	-12.3108
해지기	-12.3116
▁결혼준비하	-12.3116
▁물어볼	-12.3117
모임	-12.3118
듣는	-12.3126
동거중인	-12.3129
안주	-12.3137
▁다되가는	-12.3137
즐	-12.3141
이었어	-12.3141
픈데	-12.3143
▁받으려	-12.3146
푸석	-12.3153
말하지	-12.3173
비만이	-12.318
봤네	-12.3185
접는	-12.3186
않으니	-12.3188
들어가	-12.3189
행복한가봐	-12.3194
넘어	-12.3195
▁사랑하니	-12.3197
전까지	-12.3198
안하면	-12.3204
남보다	-12.3206
▁들어보	-12.3207
심장	-12.3207
시기	-12.3216
▁때리	-12.3219
▁술마	-12.3219
기다려야	-12.322
잊지못	-12.3221
▁씹	-12.3221
▁밀	-12.3236
친구인데	-12.3238
▁복잡했	-12.324
하게하	-12.3242
감수	-12.3242
▁다되어가	-12.3246
밤이	-12.3255
▁네달	-12.3257
정이야	-12.3267
후에	-12.3267
▁썸에	-12.3268
▁궁금한게	-12.3268
보드	-12.327
▁부담스러워할	-12.3275
▁그렇다는	-12.3285
▁못생	-12.3293
들음	-12.3299
지나가네	-12.33
구질	-12.331
타일러	-12.3313
찰랑	-12.3321
가나쁜건지	-12.3333
사니	-12.3338
▁공허함	-12.3345
날까	-12.3346
▁입맛	-12.3347
찾	-12.3348
▁누락	-12.3356
흘	-12.3356
▁봐버	-12.3358
▁장거리연애	-12.3359
람	-12.3361
그랬어	-12.3365
▁힘드나	-12.3367
▁휘둘	-12.3367
타오를	-12.337
명인데	-12.3373
말에	-12.3381
▁끈이	-12.3383
하더라고	-12.3385
▁마세	-12.3388
내리	-12.3393
▁엇갈	-12.3407
▁생생	-12.3422
할수있	-12.3423
▁걱정해	-12.3448
▁엿	-12.3449
▁다르니	-12.345
▁욕하	-12.3451
▁초라	-12.3461
되었네	-12.3463
▁정상인	-12.3464
쓸까	-12.3474
▁먹여주	-12.3478
▁밀려	-12.3484
맞는걸	-12.3488
지옥	-12.3495
▁착잡	-12.3496
자제	-12.3499
▁헤어졌으니	-12.35
▁미화되	-12.3503
▁회사가	-12.3503
두는	-12.3505
▁자유로워질	-12.351
▁멋있는	-12.3511
만해	-12.3513
아야	-12.3515
▁독한	-12.3519
▁외국	-12.3525
▁나아졌다	-12.3531
▁생각해보세	-12.3532
긋	-12.3533
▁섭섭	-12.3539
▁자장면	-12.3542
썸이	-12.3543
이루	-12.3544
▁망설여	-12.3544
출근해	-12.3545
내려고	-12.3547
치워야	-12.355
▁없애야	-12.3558
였는데	-12.3561
▁났나	-12.3574
련	-12.3578
▁힘내세	-12.3583
▁부담스러	-12.3591
줄거	-12.3594
받으니	-12.3594
쁘	-12.3595
석해야	-12.3595
시킬	-12.3601
▁간접	-12.3607
▁당사자	-12.3607
▁안나나	-12.3608
막힌	-12.3609
▁어색해졌	-12.3612
혹	-12.3612
렀	-12.3614
말아	-12.3615
먹는	-12.3617
보내세	-12.3617
딛	-12.3619
벼	-12.3619
녀야	-12.3619
습니	-12.362
졌다는	-12.3621
▁절망	-12.3622
듭	-12.3627
▁발렌타	-12.3628
깝	-12.3628
쁠	-12.3628
지쳐	-12.3629
련하네	-12.3632
▁무색해	-12.3633
빴	-12.3634
네ᄒᄒ	-12.3634
맙	-12.3634
뜰	-12.3635
▁희	-12.3635
컥	-12.3635
황	-12.3635
▁안타	-12.3635
▁격	-12.3637
춤	-12.3637
톱	-12.3638
▁퇴	-12.3638
닿	-12.3638
▁번이	-12.3638
▁뜬	-12.3638
▁눌	-12.3638
봇	-12.3638
▁승	-12.3638
쩔	-12.3638
▁갱	-12.3639
▁핸	-12.3639
턴	-12.3639
▁엄	-12.364
▁헬	-12.364
▁텅	-12.364
▁어렸을	-12.364
▁엊	-12.364
램	-12.364
콤	-12.364
▁정리되었	-12.364
욜	-12.364
▁가라앉	-12.3641
▁뉴	-12.3641
▁헬스	-12.3641
졋	-12.3641
렬하	-12.3641
낭	-12.3641
몽	-12.3641
칭	-12.3641
▁겉	-12.3641
▁맞춤	-12.3641
▁섬	-12.3641
률	-12.3641
딜	-12.3641
익	-12.3642
묵	-12.3642
▁쌩	-12.3642
댄	-12.3642
랜드	-12.3642
딘	-12.3642
긍	-12.3642
냄	-12.3642
▁쌍	-12.3642
▁블랙	-12.3642
콘	-12.3642
평해	-12.3642
쎄	-12.3642
▁싱	-12.3642
렛이	-12.3642
령	-12.3642
첩	-12.3642
팍	-12.3642
퓨	-12.3642
▁흑	-12.3642
▁덤	-12.3642
▁끝나버	-12.3642
▁토닥	-12.3642
▁떠오	-12.3643
▁봉사	-12.3643
활동	-12.3647
리스마	-12.3648
▁데려다줬	-12.3654
▁발렌타인	-12.3655
▁열받	-12.3655
▁서류	-12.3657
겼으면	-12.3657
폭발	-12.3659
▁식욕	-12.366
자인	-12.366
▁누군	-12.3663
▁낸	-12.3665
관계인가	-12.3665
싶	-12.9752
썸	-13.5526
킥	-13.7043
쪘	-13.7044
짬	-13.7045
젊	-13.7046
옮	-13.7047
옛	-13.7048
얇	-13.7049
씸	-13.705
씰	-13.7051
썰	-13.7052
숏	-13.7053
섰	-13.7054
섣	-13.7055
섞	-13.7056
샐	-13.7057
뽕	-13.7058
뺏	-13.7059
볕	-13.706
륜	-13.7061
띵	-13.7062
덮	-13.7063
댔	-13.7064
논	-13.7065
꼴	-13.7066
깼	-13.7067
깬	-13.7068
괘	-13.7069
겜	-13.707
o	-13.7071
g	-13.7072
홧	-13.7073
홈	-13.7074
헹	-13.7075
헐	-13.7076
텅	-13.7077
텀	-13.7078
턱	-13.7079
쿵	-13.708
캬	-13.7081
측	-13.7082
짼	-13.7083
엿	-13.7084
엊	-13.7085
얽	-13.7086
앱	-13.7087
숫	-13.7088
묘	-13.7089
몬	-13.709
렐	-13.7091
랙	-13.7092
랖	-13.7093
뜬	-13.7094
떴	-13.7095
됬	-13.7096
눕	-13.7097
눌	-13.7098
뇌	-13.7099
꿰	-13.71
꽝	-13.7101
깰	-13.7102
겉	-13.7103
갱	-13.7104
훔	-13.7105
핫	-13.7106
텁	-13.7107
컸	-13.7108
촬	-13.7109
총	-13.711
짰	-13.7111
좌	-13.7112
웹	-13.7113
밉	-13.7114
몫	-13.7115
멘	-13.7116
맺	-13.7117
맴	-13.7118
릇	-13.7119
뚫	-13.712
넷	-13.7121
꽉	-13.7122
꼰	-13.7123
굳	-13.7124
겪	-13.7125
갠	-13.7126
C	-13.7127
헌	-13.7128
폼	-13.7129
팠	-13.713
팀	-13.7131
탓	-13.7132
쿨	-13.7133
켰	-13.7134
왠	-13.7135
엮	-13.7136
씌	-13.7137
쏠	-13.7138
쏟	-13.7139
삐	-13.714
쁨	-13.7141
빚	-13.7142
볍	-13.7143
렜	-13.7144
렛	-13.7145
긁	-13.7146
흑	-13.7147
헥	-13.7148
틋	-13.7149
툼	-13.715
퀴	-13.7151
찜	-13.7152
젯	-13.7153
옳	-13.7154
썹	-13.7155
쌍	-13.7156
슈	-13.7157
쉴	-13.7158
묻	-13.7159
릎	-13.716
롤	-13.7161
둠	-13.7162
돋	-13.7163
늠	-13.7164
낚	-13.7165
광	-13.7166
곱	-13.7167
휘	-13.7168
툴	-13.7169
켠	-13.717
쪼	-13.7171
징	-13.7172
쌩	-13.7173
싼	-13.7174
낙	-13.7175
끓	-13.7176
객	-13.7177
훈	-13.7178
짱	-13.7179
젖	-13.718
웬	-13.7181
얻	-13.7182
씁	-13.7183
섬	-13.7184
뽀	-13.7185
뢰	-13.7186
렬	-13.7187
땡	-13.7188
늙	-13.7189
낄	-13.719
A	-13.7191
찔	-13.7192
엉	-13.7193
띄	-13.7194
땀	-13.7195
닮	-13.7196
녹	-13.7197
넓	-13.7198
검	-13.7199
앉	-13.72
샤	-13.7201
벚	-13.7202
맡	-13.7203
뤄	-13.7204
랫	-13.7205
딪	-13.7206
꾹	-13.7207
겹	-13.7208
헬	-13.7209
잃	-13.721
옥	-13.7211
빡	-13.7212
밝	-13.7213
렘	-13.7214
깎	-13.7215
곁	-13.7216
n	-13.7217
컴	-13.7218
씻	-13.7219
뽑	-13.722
뛰	-13.7221
딴	-13.7222
넣	-13.7223
낮	-13.7224
규	-13.7225
걔	-13.7226
푹	-13.7227
춥	-13.7228
씹	-13.7229
렌	-13.723
닫	-13.7231
갚	-13.7232
컨	-13.7233
썼	-13.7234
슷	-13.7235
딸	-13.7236
꼼	-13.7237
귈	-13.7238
뒷	-13.7239
뉴	-13.724
뀔	-13.7241
.	-13.7242
웨	-13.7243
녁	-13.7244
뀌	-13.7245
깔	-13.7246
깍	-13.7247
N	-13.7248
7	-13.7249
획	-13.725
텨	-13.7251
셀	-13.7252
됩	-13.7253
눠	-13.7254
걷	-13.7255
엽	-13.7256
샀	-13.7257
삭	-13.7258
쌓	-13.7259
싱	-13.726
멈	-13.7261
권	-13.7262
희	-13.7263
삼	-13.7264
밍	-13.7265
헛	-13.7266
틱	-13.7267
옆	-13.7268
북	-13.7269
쇼	-13.727
섭	-13.7271
끄	-13.7272
탁	-13.7273
벗	-13.7274
숭	-13.7275
멍	-13.7276
헷	-13.7277
잖	-13.7278
읽	-13.7279
삶	-13.728
높	-13.7281
낫	-13.7282
뎌	-13.7283
멀	-13.7284
득	-13.7285
녕	-13.7286
깐	-13.7287
엇	-13.7288
흔	-13.7289
빌	-13.729
흐	-13.7291
끊	-13.7292
괴	-13.7293
퇴	-13.7294
짧	-13.7295
승	-13.7296
랜	-13.7297
밌	-13.7298
덤	-13.7299
픔	-13.73
핸	-13.7301
몇	-13.7302
똑	-13.7303
풍	-13.7304
슴	-13.7305
뭔	-13.7306
뻐	-13.7307
씀	-13.7308
닐	-13.7309
0	-13.731
맨	-13.7311
평	-13.7312
첫	-13.7313
풀	-13.7314
챙	-13.7315
죽	-13.7316
존	-13.7317
험	-13.7318
격	-13.7319
최	-13.732
엄	-13.7321
럼	-13.7322
떤	-13.7323
뭘	-13.7324
슨	-13.7325
걱	-13.7326
쉽	-13.7327
믿	-13.7328
겼	-13.7329
택	-13.733
닌	-13.7331
접	-13.7332
막	-13.7333
랄	-13.7334
몰	-13.7335
럴	-13.7336
억	-13.7337
변	-13.7338
싫	-13.7339
쓰	-13.734
떻	-13.7341
렇	-13.7342
편	-13.7343
괜	-13.7344
찮	-13.7345
뭐	-13.7346
받	-13.7347
습	-13.7348
혼	-13.7349
헤	-13.735
않	-13.7351
많	-13.7352
힘	-13.7353
없	-13.7354
같	-13.7355
좋	-13.7356
